<unk> 999 #fairseq:overwrite
<s> 999 #fairseq:overwrite
</s> 999 #fairseq:overwrite
, 999
▁de 999
. 999
s 999
' 999
’ 999
▁la 999
▁et 999
▁à 999
▁le 999
▁l 999
▁d 999
▁les 999
▁des 999
▁ 999
▁en 999
▁un 999
▁pour 999
▁du 999
- 999
▁que 999
▁une 999
▁dans 999
▁est 999
▁qui 999
▁sur 999
▁a 999
▁pas 999
e 999
▁au 999
▁par 999
▁( 999
▁vous 999
▁plus 999
est 999
▁avec 999
▁: 999
▁ce 999
▁ne 999
▁qu 999
▁ou 999
▁se 999
▁n 999
▁je 999
▁il 999
▁s 999
) 999
▁Le 999
a 999
▁sont 999
... 999
▁son 999
un 999
▁c 999
▁La 999
il 999
▁nous 999
▁« 999
▁mais 999
▁tout 999
▁- 999
▁aux 999
▁Il 999
une 999
▁L 999
▁bien 999
ai 999
▁Les 999
▁votre 999
▁j 999
▁sa 999
▁cette 999
▁comme 999
es 999
r 999
▁fait 999
▁! 999
▁C 999
▁faire 999
▁si 999
▁" 999
on 999
▁ses 999
en 999
▁on 999
: 999
▁même 999
▁» 999
▁très 999
▁ont 999
▁leur 999
▁être 999
▁aussi 999
▁Je 999
▁été 999
▁y 999
▁me 999
▁peut 999
y 999
▁? 999
▁En 999
er 999
▁elle 999
t 999
▁lui 999
▁sans 999
nt 999
▁A 999
▁m 999
▁deux 999
▁tous 999
▁2 999
▁ces 999
). 999
▁J 999
/ 999
▁Pour 999
▁1 999
▁temps 999
▁peu 999
▁notre 999
▁entre 999
▁mon 999
" 999
ment 999
▁site 999
h 999
▁ans 999
▁3 999
▁ça 999
▁De 999
z 999
▁Et 999
▁vos 999
é 999
), 999
▁encore 999
elle 999
▁donc 999
▁suis 999
▁où 999
▁Ce 999
▁était 999
▁tu 999
▁fois 999
! 999
▁Un 999
; 999
▁ma 999
▁S 999
▁vie 999
▁Vous 999
▁Mais 999
▁D 999
▁sous 999
▁rencontre 999
▁ainsi 999
▁monde 999
▁non 999
▁nos 999
▁; 999
▁Si 999
à 999
▁Nous 999
▁avait 999
ant 999
▁car 999
▁dont 999
▁moins 999
▁depuis 999
être 999
▁avant 999
▁toujours 999
▁Une 999
▁4 999
▁après 999
▁alors 999
▁France 999
le 999
▁... 999
▁leurs 999
▁M 999
o 999
▁avoir 999
▁soit 999
▁contre 999
▁quelques 999
▁toute 999
▁Elle 999
▁– 999
? 999
▁va 999
ait 999
▁également 999
▁On 999
▁moi 999
▁cas 999
d 999
▁5 999
▁quand 999
▁cela 999
▁toutes 999
▁jour 999
▁sera 999
▁Dans 999
▁bon 999
▁faut 999
▁autres 999
m 999
c 999
▁beaucoup 999
▁place 999
l 999
▁ils 999
▁grand 999
▁chez 999
▁voir 999
▁vers 999
▁travail 999
▁petit 999
▁dit 999
C 999
S 999
était 999
et 999
▁Cette 999
i 999
de 999
▁déjà 999
in 999
▁trop 999
▁autre 999
▁10 999
ils 999
▁là 999
▁personnes 999
A 999
ci 999
▁partie 999
▁premier 999
▁plusieurs 999
▁dire 999
▁mes 999
▁mois 999
▁chaque 999
eau 999
2 999
▁rien 999
n 999
▁pays 999
▁jusqu 999
▁prix 999
▁fin 999
▁6 999
▁B 999
▁moment 999
ont 999
▁puis 999
hui 999
autres 999
ez 999
▁/ 999
▁maison 999
▁femme 999
▁t 999
▁première 999
ons 999
▁jours 999
▁P 999
au 999
▁Au 999
▁N 999
▁doit 999
▁cet 999
▁nouveau 999
▁suite 999
▁jamais 999
▁ligne 999
▁ville 999
p 999
▁compte 999
▁permet 999
▁afin 999
x 999
ce 999
▁part 999
▁grande 999
▁pouvez 999
▁mal 999
▁avons 999
ur 999
▁lors 999
▁point 999
▁Paris 999
▁18 999
▁vraiment 999
▁trois 999
▁nouvelle 999
ra 999
▁| 999
▁cours 999
ou 999
▁T 999
com 999
▁», 999
it 999
▁prendre 999
▁personne 999
vous 999
▁peuvent 999
▁bonne 999
▁années 999
▁savoir 999
▁ceux 999
la 999
▁lieu 999
▁ici 999
ne 999
▁20 999
ent 999
▁projet 999
▁mettre 999
▁enfants 999
▁celui 999
▁eu 999
▁recherche 999
▁7 999
▁mieux 999
▁qualité 999
▁produits 999
▁chose 999
▁15 999
▁pendant 999
▁effet 999
al 999
D 999
▁re 999
▁8 999
▁R 999
re 999
▁droit 999
▁dernier 999
▁avez 999
▁partir 999
▁pouvoir 999
▁te 999
▁reste 999
▁petite 999
▁souvent 999
▁trouver 999
▁jeu 999
▁F 999
▁niveau 999
▁E 999
▁G 999
f 999
▁Des 999
an 999
▁nombre 999
▁service 999
1 999
▁groupe 999
autre 999
L 999
▁». 999
▁Par 999
▁nom 999
] 999
▁mise 999
▁tant 999
▁Saint 999
▁in 999
▁plan 999
▁vu 999
▁surtout 999
▁ni 999
g 999
▁possible 999
B 999
▁celle 999
▁p 999
­ 999
▁femmes 999
▁juste 999
& 999
▁coup 999
▁jeune 999
▁besoin 999
▁selon 999
▁trouve 999
▁question 999
▁parce 999
E 999
▁demande 999
▁famille 999
ing 999
▁[ 999
▁comment 999
▁aujourd 999
P 999
▁Après 999
les 999
▁12 999
▁notamment 999
▁exemple 999
T 999
( 999
▁choix 999
▁ton 999
▁données 999
▁30 999
is 999
▁9 999
▁certains 999
▁homme 999
ée 999
▁côté 999
▁assez 999
▁ré 999
▁société 999
fr 999
▁seul 999
▁façon 999
▁français 999
▁forme 999
▁Avec 999
▁année 999
▁gratuit 999
▁grâce 999
▁Ils 999
▁sens 999
▁porte 999
▁système 999
▁services 999
▁propose 999
b 999
avoir 999
▁passer 999
▁simple 999
▁seulement 999
▁salle 999
▁serait 999
F 999
▁tête 999
or 999
H 999
▁% 999
▁H 999
▁belle 999
▁pu 999
▁V 999
▁17 999
▁rapport 999
▁type 999
▁face 999
▁politique 999
3 999
▁sommes 999
M 999
▁devant 999
▁mis 999
▁À 999
▁photos 999
▁Jean 999
▁rencontres 999
ation 999
▁cadre 999
▁eux 999
▁16 999
▁14 999
▁vue 999
▁près 999
▁début 999
ais 999
▁quelque 999
▁K 999
aux 999
▁quoi 999
▁“ 999
▁corps 999
te 999
aient 999
▁main 999
▁nombreux 999
age 999
▁film 999
▁long 999
▁base 999
▁êtes 999
k 999
▁gens 999
▁etc 999
▁développement 999
▁pense 999
▁produit 999
▁Du 999
▁Sa 999
▁font 999
▁plutôt 999
▁manière 999
▁passe 999
▁tour 999
▁donner 999
▁livre 999
▁heures 999
même 999
▁formation 999
▁maintenant 999
▁Ces 999
▁cuisine 999
", 999
u 999
▁seront 999
année 999
ie 999
▁juin 999
▁pris 999
avais 999
▁public 999
v 999
apos 999
▁meilleur 999
▁hommes 999
▁étaient 999
us 999
▁11 999
▁centre 999
▁semaine 999
▁ta 999
▁fille 999
▁& 999
▁jeunes 999
▁raison 999
▁haut 999
▁choses 999
▁autour 999
▁Tout 999
ème 999
▁Sur 999
G 999
▁fut 999
▁sécurité 999
histoire 999
V 999
▁I 999
▁2018 999
▁journée 999
▁Comme 999
▁sais 999
▁donne 999
▁bois 999
▁sexe 999
art 999
▁13 999
▁santé 999
▁passé 999
▁page 999
▁dès 999
▁titre 999
és 999
agit 999
▁Re 999
▁marché 999
▁dé 999
° 999
▁travers 999
me 999
▁Alors 999
▁pourrait 999
▁dernière 999
▁problème 999
4 999
▁différents 999
▁membres 999
▁région 999
▁elles 999
▁loin 999
▁sujet 999
O 999
▁mesure 999
▁marque 999
▁nouvelles 999
▁loi 999
▁pourquoi 999
▁découvrir 999
▁informations 999
▁plaisir 999
▁fonction 999
▁situation 999
▁sites 999
▁+ 999
▁seule 999
▁e 999
▁vrai 999
eur 999
▁gros 999
j 999
▁veut 999
▁yeux 999
▁général 999
N 999
▁chambre 999
▁minutes 999
▁parfois 999
▁petits 999
ine 999
▁lorsque 999
▁> 999
» 999
▁h 999
ailleurs 999
▁25 999
▁soir 999
▁vient 999
▁photo 999
at 999
". 999
▁000 999
▁cause 999
▁mort 999
▁propre 999
▁offre 999
R 999
▁semble 999
▁aucun 999
▁aller 999
air 999
▁ayant 999
▁but 999
as 999
▁carte 999
▁toi 999
▁parler 999
w 999
▁24 999
▁ci 999
▁conditions 999
▁programme 999
▁mode 999
▁vidéo 999
el 999
▁couleur 999
ensemble 999
que 999
able 999
▁septembre 999
▁19 999
▁saison 999
J 999
▁nuit 999
:// 999
▁plein 999
▁Tu 999
aime 999
▁cher 999
je 999
▁autant 999
▁aurait 999
▁retour 999
▁ensuite 999
▁mai 999
▁président 999
▁g 999
▁beau 999
▁genre 999
▁peux 999
▁série 999
▁an 999
co 999
▁vais 999
▁étant 999
▁différentes 999
▁présente 999
▁musique 999
▁Dieu 999
▁• 999
▁Cela 999
▁bas 999
▁Son 999
▁novembre 999
avait 999
▁charge 999
▁présent 999
occasion 999
▁simplement 999
▁W 999
▁important 999
▁moyen 999
▁janvier 999
▁nature 999
▁mars 999
homme 999
▁entreprises 999
▁quatre 999
▁dis 999
▁vente 999
▁travaux 999
▁nouveaux 999
▁sûr 999
▁pratique 999
K 999
▁création 999
00 999
▁avis 999
▁aura 999
▁50 999
▁millions 999
▁jeux 999
▁vite 999
▁rendre 999
▁doute 999
▁gestion 999
W 999
▁nombreuses 999
▁terre 999
▁prise 999
ma 999
▁article 999
▁points 999
▁grands 999
▁21 999
té 999
▁fond 999
▁ca 999
▁sein 999
▁octobre 999
▁Car 999
elles 999
▁fort 999
▁rapidement 999
▁tard 999
▁histoire 999
▁créer 999
▁siècle 999
▁taille 999
▁juillet 999
▁enfin 999
tu 999
▁laquelle 999
▁Pas 999
▁vivre 999
▁O 999
▁date 999
▁doivent 999
ch 999
6 999
▁décembre 999
▁gouvernement 999
▁2017 999
▁questions 999
▁Merci 999
▁x 999
▁prend 999
▁ensemble 999
aide 999
▁noir 999
▁matière 999
ir 999
I 999
▁cœur 999
▁frais 999
▁ai 999
▁Ma 999
▁particulier 999
▁aucune 999
▁Mon 999
▁oui 999
▁vont 999
▁guerre 999
▁modèle 999
▁liste 999
na 999
▁100 999
▁version 999
▁française 999
▁période 999
▁clients 999
▁amis 999
▁Notre 999
▁of 999
▁certaines 999
▁terme 999
▁chacun 999
▁pré 999
▁traitement 999
▁envie 999
ta 999
▁force 999
▁Depuis 999
▁quel 999
entreprise 999
▁blog 999
▁Que 999
5 999
équipe 999
article 999
abord 999
▁donné 999
▁voyage 999
▁mer 999
▁[...] 999
▁the 999
ter 999
▁valeur 999
▁facile 999
▁risque 999
▁domaine 999
▁entreprise 999
▁équipe 999
ed 999
utilisation 999
▁lien 999
▁père 999
▁résultats 999
▁Ne 999
▁comprendre 999
▁matin 999
man 999
▁activités 999
30 999
▁compris 999
▁fais 999
▁réseau 999
du 999
▁lire 999
▁deuxième 999
▁jouer 999
ard 999
▁met 999
use 999
▁22 999
▁presque 999
▁rue 999
▁# 999
▁Comment 999
▁rôle 999
▁auprès 999
▁production 999
ré 999
▁laisser 999
▁table 999
ar 999
▁lit 999
ex 999
▁enfant 999
amour 999
▁mot 999
▁bout 999
▁cm 999
après 999
ement 999
▁cul 999
▁couleurs 999
▁super 999
▁tel 999
_ 999
▁difficile 999
▁voiture 999
▁parmi 999
▁vacances 999
urs 999
▁départ 999
▁Plus 999
origine 999
▁avril 999
▁protection 999
▁droits 999
▁r 999
▁blanc 999
▁route 999
▁Quand 999
▁projets 999
▁km 999
tte 999
▁utiliser 999
▁parents 999
▁mots 999
isme 999
▁nécessaire 999
▁milieu 999
▁style 999
” 999
▁Bien 999
▁internet 999
to 999
▁longtemps 999
▁écrit 999
▁venir 999
▁merci 999
▁anti 999
▁regard 999
▁scène 999
▁technique 999
▁sait 999
▁direction 999
▁directement 999
▁voix 999
end 999
iste 999
▁f 999
▁mère 999
▁The 999
▁pro 999
▁devrait 999
▁relation 999
os 999
▁concernant 999
eux 999
rie 999
ées 999
▁avaient 999
▁chef 999
▁économique 999
▁veux 999
▁parle 999
▁présence 999
▁petites 999
▁rapide 999
▁février 999
▁secteur 999
▁grandes 999
▁commune 999
8 999
▁texte 999
▁unique 999
▁solution 999
▁St 999
▁rouge 999
▁durant 999
▁) 999
particulièrement 999
▁ministre 999
▁web 999
um 999
▁professionnels 999
▁pied 999
▁choisir 999
ner 999
▁nationale 999
ier 999
▁existe 999
ité 999
▁sortie 999
▁soleil 999
▁* 999
▁peau 999
▁gauche 999
▁23 999
▁co 999
▁état 999
▁gamme 999
dé 999
7 999
▁Conseil 999
▁lorsqu 999
▁40 999
▁contrôle 999
▁trouvé 999
▁Bon 999
▁lequel 999
▁pièces 999
▁jardin 999
▁Ainsi 999
▁fil 999
▁manque 999
▁personnel 999
▁réponse 999
action 999
▁réaliser 999
▁fils 999
▁environ 999
▁répondre 999
▁besoins 999
ton 999
qui 999
▁euros 999
▁2016 999
▁€ 999
▁plupart 999
▁code 999
▁aider 999
▁DE 999
▁celles 999
Le 999
▁droite 999
▁terrain 999
▁conseil 999
▁permis 999
▁août 999
▁via 999
▁pourtant 999
ville 999
▁changer 999
▁certain 999
▁X 999
▁contact 999
La 999
▁images 999
▁expérience 999
▁communication 999
▁Z 999
▁retrouver 999
étais 999
▁classe 999
▁b 999
ad 999
X 999
▁problèmes 999
▁construction 999
▁coeur 999
▁ex 999
▁mouvement 999
▁social 999
▁peur 999
9 999
ca 999
entre 999
▁sol 999
école 999
▁forum 999
▁permettre 999
▁taux 999
▁Se 999
▁culture 999
▁suivre 999
▁dimanche 999
▁réalité 999
▁Qu 999
ia 999
▁facilement 999
▁voit 999
▁libre 999
▁sociale 999
▁tes 999
▁· 999
argent 999
▁Ca 999
▁ailleurs 999
▁2015 999
▁club 999
Unis 999
▁éléments 999
▁bureau 999
▁professionnelle 999
▁Or 999
▁visite 999
▁soient 999
▁techniques 999
▁sorte 999
▁In 999
▁Y 999
▁meilleure 999
▁disponible 999
di 999
▁U 999
▁train 999
▁commande 999
▁séjour 999
▁client 999
▁cherche 999
▁Al 999
▁peine 999
▁pièce 999
information 999
▁large 999
tre 999
▁chance 999
▁confiance 999
▁semaines 999
Y 999
▁sortir 999
▁Enfin 999
né 999
▁double 999
▁succès 999
▁Site 999
▁durée 999
▁proche 999
▁désormais 999
id 999
▁bord 999
▁possibilité 999
ante 999
▁devenir 999
intérieur 999
▁Pro 999
▁malgré 999
ac 999
▁véritable 999
▁cinq 999
ti 999
▁propos 999
▁source 999
▁parti 999
▁bain 999
ot 999
▁mariage 999
▁Tous 999
U 999
image 999
ly 999
am 999
▁salon 999
▁demander 999
▁chemin 999
▁passage 999
▁con 999
aire 999
▁crois 999
▁téléphone 999
▁lumière 999
▁haute 999
▁Voici 999
ique 999
▁zone 999
▁quelqu 999
▁montre 999
▁numéro 999
▁meilleurs 999
▁faites 999
▁village 999
▁national 999
ux 999
heure 999
▁— 999
▁samedi 999
▁population 999
▁filles 999
ère 999
▁match 999
ul 999
be 999
idée 999
▁Pierre 999
▁décision 999
no 999
▁devient 999
▁message 999
▁couple 999
été 999
▁lecture 999
▁sociaux 999
▁moyens 999
▁laisse 999
ic 999
▁hors 999
▁profiter 999
▁premiers 999
▁élèves 999
▁Oui 999
▁26 999
▁disposition 999
esprit 999
▁design 999
▁idées 999
▁rencontrer 999
€ 999
▁dés 999
▁image 999
▁professionnel 999
▁idée 999
▁and 999
▁suivi 999
▁28 999
ront 999
go 999
▁moyenne 999
▁rendez 999
▁puisque 999
rait 999
▁permettant 999
▁publié 999
espace 999
▁contenu 999
▁utilisé 999
▁connu 999
▁complet 999
Etat 999
▁pourra 999
▁conseils 999
li 999
là 999
▁pouvait 999
© 999
▁lieux 999
▁feu 999
▁marche 999
▁dernières 999
▁joueurs 999
▁Est 999
▁presse 999
▁Dé 999
▁dessus 999
▁to 999
▁27 999
▁soirée 999
▁processus 999
▁politiques 999
▁soi 999
▁résultat 999
▁obtenir 999
▁faisant 999
▁langue 999
ins 999
▁œuvre 999
▁mi 999
▁articles 999
énergie 999
état 999
ici 999
▁tellement 999
▁connaître 999
▁Ou 999
▁situé 999
▁http 999
▁travailler 999
▁Cet 999
▁Grand 999
im 999
ler 999
▁mains 999
▁bras 999
▁générale 999
▁2014 999
▁contrat 999
auteur 999
do 999
▁chat 999
▁longue 999
▁rester 999
▁soutien 999
▁0 999
if 999
ge 999
▁derniers 999
▁arrive 999
ordre 999
par 999
▁vis 999
▁commence 999
▁suivant 999
ut 999
▁poids 999
da 999
emploi 999
▁es 999
www 999
▁É 999
▁pourrez 999
▁pages 999
▁60 999
▁décidé 999
ro 999
▁Non 999
▁sud 999
▁quelle 999
▁annonce 999
pe 999
▁Maison 999
▁position 999
▁connaissance 999
▁Votre 999
ance 999
▁permettent 999
▁Rencontre 999
▁Internet 999
▁vendredi 999
ry 999
▁publique 999
...) 999
▁cheveux 999
▁penser 999
▁territoire 999
up 999
▁retrouve 999
▁souhaite 999
0 999
▁garde 999
▁Bonjour 999
▁campagne 999
▁rend 999
accès 999
association 999
▁31 999
▁Selon 999
car 999
ri 999
des 999
▁responsable 999
▁dos 999
▁liberté 999
▁derrière 999
▁seconde 999
▁partager 999
▁Aujourd 999
▁quotidien 999
activité 999
▁Nord 999
sur 999
▁changement 999
▁concerne 999
▁mission 999
▁!!! 999
▁chambres 999
accord 999
▁communauté 999
▁!! 999
▁sélection 999
èrent 999
▁pose 999
▁puissance 999
▁thème 999
▁prochain 999
▁livres 999
▁faisait 999
▁visage 999
▁telle 999
▁29 999
▁activité 999
▁espace 999
▁physique 999
▁membre 999
▁papier 999
▁commun 999
▁Con 999
▁Lire 999
▁uniquement 999
importe 999
▁2013 999
th 999
▁poste 999
▁aide 999
▁disponibles 999
▁souhaitez 999
▁porno 999
▁référence 999
si 999
▁actuellement 999
▁appel 999
▁respect 999
▁efficace 999
▁commencer 999
con 999
istes 999
▁éviter 999
▁moteur 999
▁manger 999
Europe 999
▁Me 999
▁Québec 999
lé 999
qu 999
ure 999
▁finalement 999
▁inter 999
▁reçu 999
* 999
dessus 999
▁Sud 999
▁totalement 999
▁tendance 999
▁agréable 999
▁collection 999
Ã 999
▁tels 999
▁bar 999
▁suffit 999
▁Mont 999
▁ami 999
▁accès 999
▁parcours 999
mm 999
▁films 999
▁contraire 999
▁capacité 999
▁sport 999
ni 999
▁habitants 999
isation 999
▁pratiques 999
ale 999
▁ressources 999
▁Sans 999
▁troisième 999
▁actions 999
▁solutions 999
▁acheter 999
entrée 999
▁mm 999
lu 999
▁partout 999
▁matériel 999
per 999
ver 999
▁sort 999
▁entendu 999
▁études 999
▁relations 999
▁2012 999
▁port 999
min 999
▁forte 999
▁transport 999
▁Même 999
▁pieds 999
ion 999
▁parfaitement 999
che 999
▁prêt 999
▁Donc 999
▁cependant 999
▁Centre 999
voir 999
▁Cependant 999
▁dossier 999
▁ouvert 999
> 999
▁département 999
▁attention 999
objet 999
▁proximité 999
▁caractère 999
▁court 999
▁pleine 999
eurs 999
▁= 999
10 999
lo 999
▁goût 999
▁mètres 999
▁vidéos 999
▁fera 999
▁continue 999
▁confort 999
▁sang 999
▁présenter 999
▁voulez 999
▁Nos 999
âge 999
expérience 999
▁micro 999
▁divers 999
▁quartier 999
▁repas 999
▁peuple 999
▁roman 999
▁réalisé 999
▁voie 999
▁Français 999
▁calme 999
▁règles 999
▁total 999
 999
▁vois 999
20 999
É 999
▁vol 999
impression 999
▁conception 999
▁with 999
▁européenne 999
▁lundi 999
ka 999
▁Qui 999
▁post 999
▁soins 999
▁aime 999
nous 999
époque 999
▁location 999
▁concours 999
▁directeur 999
▁belles 999
▁importante 999
▁gagner 999
▁k 999
▁regarder 999
▁groupes 999
▁personnages 999
▁compagnie 999
▁dix 999
▁proposer 999
▁Co 999
▁Etats 999
▁bonnes 999
▁choisi 999
ions 999
▁Puis 999
▁numérique 999
mer 999
adresse 999
▁comprend 999
▁porter 999
▁nord 999
▁modèles 999
», 999
▁parties 999
▁vitesse 999
▁Femme 999
▁Ré 999
▁heure 999
▁Très 999
▁magnifique 999
▁voici 999
▁volonté 999
▁mémoire 999
▁allez 999
avec 999
▁hauteur 999
▁puisse 999
▁réseaux 999
▁consommation 999
▁catégorie 999
▁montant 999
▁Marie 999
▁réussi 999
▁développer 999
▁personnage 999
▁Mar 999
der 999
▁devez 999
▁direct 999
▁voilà 999
▁machine 999
▁gaz 999
▁Europe 999
▁édition 999
▁verre 999
▁principe 999
▁généralement 999
▁peinture 999
▁poser 999
▁course 999
▁régime 999
▁Chaque 999
▁trouverez 999
▁François 999
se 999
▁cinéma 999
▁mesures 999
▁République 999
▁su 999
▁bleu 999
achat 999
▁dispose 999
▁second 999
▁surface 999
▁80 999
enfant 999
▁dû 999
tant 999
▁moderne 999
▁combat 999
pour 999
▁perdre 999
▁participer 999
organisation 999
▁États 999
▁chercher 999
▁bons 999
▁sac 999
dessous 999
ateur 999
▁propres 999
ve 999
▁bonheur 999
▁outils 999
50 999
▁al 999
▁perdu 999
mo 999
▁internationale 999
▁structure 999
Z 999
▁piscine 999
▁conscience 999
▁(...) 999
▁classique 999
accueil 999
▁électrique 999
▁explique 999
▁vision 999
▁Canada 999
ol 999
intérêt 999
▁commencé 999
État 999
▁montrer 999
▁El 999
▁maladie 999
▁plage 999
▁Val 999
▁commerce 999
▁mercredi 999
▁vent 999
▁acteurs 999
tique 999
po 999
▁faible 999
ette 999
Les 999
▁joue 999
▁réalisation 999
▁200 999
▁beauté 999
espère 999
sse 999
▁créé 999
▁garder 999
ga 999
▁fer 999
▁croissance 999
▁é 999
▁jeudi 999
▁vieux 999
▁maximum 999
environnement 999
▁parc 999
▁fonctionnement 999
▁partenaires 999
▁quant 999
rons 999
ouverture 999
▁clair 999
q 999
▁or 999
avez 999
▁Go 999
▁Pourquoi 999
▁mondiale 999
▁naissance 999
▁six 999
tion 999
▁premières 999
▁familles 999
▁police 999
▁endroit 999
▁demi 999
▁différence 999
▁Elles 999
vis 999
▁courant 999
▁naturel 999
▁demandé 999
▁majorité 999
= 999
▁recevoir 999
▁parfait 999
aller 999
▁faite 999
▁New 999
▁week 999
net 999
lin 999
▁régulièrement 999
▁crise 999
application 999
▁Plan 999
son 999
▁devait 999
▁trans 999
▁bio 999
▁sourire 999
▁compétences 999
▁lutte 999
▁possède 999
▁fête 999
▁v 999
▁entièrement 999
fi 999
▁lu 999
▁partage 999
▁bientôt 999
ha 999
▁réel 999
▁vit 999
▁note 999
Je 999
▁tandis 999
▁Moi 999
▁gratuite 999
▁chaud 999
▁2011 999
▁véhicule 999
▁découverte 999
▁Accueil 999
▁top 999
▁locaux 999
▁format 999
▁Lorsque 999
15 999
[ 999
ient 999
▁signe 999
▁prochaine 999
ba 999
▁action 999
▁mardi 999
▁soin 999
pa 999
▁animaux 999
▁complètement 999
▁anglais 999
hésitez 999
▁domicile 999
▁risques 999
▁annonces 999
▁étudiants 999
▁représente 999
▁final 999
▁responsabilité 999
▁Web 999
▁coin 999
▁télé 999
è 999
▁Ville 999
▁i 999
▁amour 999
▁carrière 999
▁textes 999
nes 999
▁payer 999
▁médias 999
▁sauf 999
euse 999
▁complète 999
▁compter 999
cher 999
▁500 999
▁rendu 999
ite 999
▁change 999
▁objectif 999
▁35 999
▁historique 999
▁Ar 999
▁limite 999
▁Per 999
vi 999
▁justice 999
▁international 999
▁contacter 999
▁dois 999
▁logiciel 999
▁fonds 999
▁permettra 999
▁présentation 999
+ 999
dire 999
▁types 999
▁croire 999
▁devenu 999
ap 999
▁continuer 999
▁certaine 999
▁pression 999
▁Cour 999
▁Ta 999
о 999
▁Toutes 999
40 999
▁guide 999
▁livraison 999
▁auto 999
▁support 999
▁propriété 999
▁application 999
▁formes 999
▁idéal 999
▁né 999
tra 999
▁fruits 999
▁vin 999
▁ait 999
▁bande 999
▁for 999
ttes 999
▁valeurs 999
▁villes 999
▁voire 999
▁radio 999
▁distance 999
huile 999
aï 999
▁www 999
▁riche 999
▁2010 999
▁spectacle 999
▁viens 999
▁perte 999
▁Ben 999
▁vert 999
Il 999
ables 999
▁documents 999
▁rêve 999
économie 999
▁effets 999
▁Ha 999
ck 999
▁passant 999
▁ancien 999
▁équipes 999
▁air 999
▁capable 999
▁méthode 999
land 999
▁touche 999
▁froid 999
▁Mo 999
▁outre 999
▁cartes 999
▁raisons 999
| 999
▁entier 999
▁Lyon 999
▁annoncé 999
▁Google 999
▁publics 999
▁vendre 999
▁utilisateurs 999
▁principal 999
▁mobile 999
▁caractéristique 999
▁vaut 999
▁70 999
▁champ 999
▁détails 999
▁grosse 999
▁Michel 999
▁Prix 999
▁Bar 999
tes 999
▁nécessaires 999
▁participation 999
▁preuve 999
hôtel 999
▁pierre 999
11 999
▁pouvons 999
▁Sac 999
▁termes 999
▁bébé 999
▁Président 999
▁mur 999
▁tenir 999
▁condition 999
▁adresse 999
En 999
▁fini 999
▁étude 999
▁minimum 999
▁tableau 999
▁recette 999
12 999
▁@ 999
▁bouche 999
iser 999
ix 999
▁tient 999
▁nouvel 999
em 999
étude 999
▁Paul 999
▁arriver 999
va 999
▁technologie 999
▁magasin 999
▁assurer 999
▁passion 999
▁chien 999
▁document 999
▁finale 999
▁offrir 999
▁réserve 999
▁veulent 999
▁sérieux 999
▁célèbre 999
▁milliards 999
▁(19 999
▁frère 999
▁o 999
ana 999
▁lettre 999
▁apprendre 999
▁affaires 999
▁cuir 999
enseignement 999
hi 999
▁sinon 999
▁tenu 999
▁environnement 999
▁tenue 999
▁plat 999
▁américain 999
▁essayer 999
▁gratuitement 999
▁objets 999
▁portes 999
Union 999
ang 999
▁liens 999
▁accord 999
▁revenir 999
▁Noël 999
▁Ses 999
▁voulu 999
ise 999
▁Ça 999
utiliser 999
▁contexte 999
▁ciel 999
▁concept 999
oc 999
▁davantage 999
▁Deux 999
▁défense 999
▁Chine 999
▁LA 999
▁vérité 999
▁stratégie 999
▁chaleur 999
▁Avant 999
▁répond 999
▁paix 999
▁occasion 999
ty 999
ive 999
▁café 999
▁prévu 999
▁allait 999
▁by 999
% 999
▁précise 999
▁heureux 999
delà 999
▁restaurant 999
ron 999
▁Grâce 999
▁mari 999
iens 999
▁protéger 999
avant 999
▁servir 999
tin 999
▁mêmes 999
▁intéressant 999
▁joueur 999
▁local 999
▁album 999
▁puisqu 999
euros 999
▁coupe 999
objectif 999
▁déclaré 999
▁utilisation 999
▁forcément 999
▁objectifs 999
▁boutique 999
▁cour 999
mon 999
▁diverses 999
▁neuf 999
▁meilleures 999
▁faudra 999
ienne 999
▁mauvais 999
▁médecin 999
▁certainement 999
». 999
▁marques 999
▁viennent 999
▁systèmes 999
▁évidemment 999
ière 999
▁paiement 999
▁forces 999
▁coût 999
Q 999
▁victoire 999
▁II 999
▁surprise 999
▁logement 999
adore 999
â 999
▁90 999
▁moitié 999
▁préparation 999
▁ouverte 999
administration 999
éducation 999
▁meuble 999
▁beaux 999
▁Découvrez 999
▁zones 999
offre 999
res 999
▁lancer 999
▁critique 999
▁test 999
▁privé 999
▁bi 999
aurais 999
évolution 999
▁ministère 999
▁roi 999
." 999
ois 999
▁lignes 999
▁milliers 999
▁100% 999
▁âge 999
а 999
▁réduire 999
ab 999
▁eau 999
▁travaille 999
ja 999
▁futur 999
ue 999
▁Louis 999
▁durable 999
▁mélange 999
▁commentaires 999
▁budget 999
▁fallait 999
▁ferme 999
▁Na 999
▁arrière 999
▁impossible 999
mé 999
ger 999
▁fit 999
▁45 999
▁aimé 999
arrivée 999
▁préparer 999
mais 999
▁art 999
▁joie 999
où 999
▁visiter 999
assurance 999
▁Pi 999
ants 999
appel 999
▁terrasse 999
iez 999
80 999
▁métier 999
▁min 999
▁dehors 999
▁moments 999
▁patrimoine 999
▁appartement 999
▁supérieur 999
▁commentaire 999
ko 999
pi 999
▁attendre 999
▁hier 999
ille 999
▁humain 999
▁finir 999
▁siège 999
▁rappelle 999
▁décoration 999
!! 999
▁température 999
▁Suisse 999
▁voulait 999
▁oublier 999
▁proches 999
▁fleurs 999
▁discours 999
▁Art 999
▁scolaire 999
▁intérieur 999
▁sept 999
▁tôt 999
mi 999
ts 999
▁Facebook 999
▁sert 999
▁apporter 999
Université 999
vé 999
▁construire 999
▁humaine 999
▁profil 999
▁démarche 999
▁maisons 999
▁artistes 999
▁Lors 999
ence 999
▁^^ 999
▁Be 999
▁absolument 999
▁sociétés 999
▁signifie 999
▁connaissances 999
▁crème 999
io 999
▁partenaire 999
▁collaboration 999
▁rythme 999
▁Chambre 999
▁Voir 999
ah 999
▁principalement 999
▁capitale 999
autant 999
▁pensée 999
▁théâtre 999
45 999
▁Certains 999
▁section 999
▁somme 999
▁mini 999
▁située 999
▁rose 999
avenir 999
▁Jésus 999
▁$ 999
▁étape 999
▁esprit 999
▁multi 999
ig 999
▁bénéficier 999
▁professeur 999
▁sentir 999
19 999
21 999
ina 999
line 999
▁normal 999
▁bâtiment 999
ologie 999
ques 999
▁fournir 999
bo 999
▁Terre 999
▁Entre 999
▁communes 999
▁revient 999
▁No 999
analyse 999
▁probablement 999
▁foi 999
pro 999
▁Société 999
▁proposé 999
▁débat 999
ans 999
▁rejoindre 999
cé 999
▁scientifique 999
▁moindre 999
installation 999
▁pi 999
ak 999
▁sucre 999
ES 999
▁largement 999
▁parole 999
œuvre 999
▁tomber 999
▁correspond 999
▁Tour 999
▁constitue 999
▁com 999
▁four 999
▁réduction 999
île 999
14 999
▁fichier 999
▁excellent 999
▁Voilà 999
▁toutefois 999
▁présenté 999
▁Grande 999
▁blanche 999
▁privée 999
▁consulter 999
▁concert 999
▁difficultés 999
▁défaut 999
fa 999
25 999
▁garantie 999
▁baisse 999
▁fonctions 999
!!! 999
avons 999
▁sociales 999
▁Belgique 999
▁longueur 999
▁juge 999
▁patients 999
ancien 999
▁réunion 999
▁européen 999
ien 999
▁améliorer 999
▁Pays 999
16 999
▁gay 999
▁salariés 999
▁douche 999
▁chocolat 999
▁So 999
▁chaîne 999
établissement 999
AS 999
▁propriétaire 999
▁aurez 999
▁pr 999
ny 999
▁utile 999
▁outil 999
▁2009 999
▁objet 999
▁réception 999
cha 999
▁phase 999
▁meme 999
▁Petit 999
▁sujets 999
▁tiers 999
univers 999
pé 999
▁emploi 999
▁jolie 999
▁cité 999
▁veille 999
ers 999
▁profit 999
▁lancé 999
▁rire 999
▁époque 999
▁fonctionne 999
▁sympa 999
▁tenter 999
18 999
13 999
▁grave 999
▁recherches 999
▁publication 999
▁LE 999
▁conseiller 999
ès 999
▁Li 999
erie 999
▁écoles 999
écran 999
▁délai 999
▁Philippe 999
ché 999
mont 999
@ 999
▁gérer 999
▁programmes 999
▁masse 999
▁prises 999
▁événements 999
▁po 999
▁totale 999
▁retraite 999
▁cadeau 999
▁pourront 999
▁vide 999
▁vraie 999
moi 999
▁défi 999
mar 999
▁lendemain 999
▁performance 999
▁réflexion 999
▁dessin 999
▁composé 999
▁noter 999
▁Di 999
▁Nicolas 999
▁élevé 999
▁connais 999
▁consiste 999
▁300 999
▁anciens 999
▁tente 999
▁récemment 999
industrie 999
▁tombe 999
ments 999
▁maître 999
▁crédit 999
▁Quel 999
▁Ch 999
née 999
▁fabrication 999
ns 999
extérieur 999
▁devoir 999
▁ajouter 999
▁laissé 999
▁arrivé 999
▁approche 999
▁liés 999
lot 999
▁figure 999
▁mondial 999
▁Ni 999
▁2008 999
▁dollars 999
▁Po 999
▁plans 999
▁information 999
▁immédiatement 999
▁ordinateur 999
▁pouvant 999
▁parfaite 999
▁Mi 999
▁clé 999
▁quantité 999
▁militaire 999
▁fou 999
ke 999
▁Pendant 999
▁adultes 999
▁Dès 999
▁niveaux 999
instant 999
chi 999
▁basse 999
▁vivant 999
▁déco 999
▁sexy 999
▁conférence 999
000 999
▁To 999
▁bel 999
▁Christ 999
▁principaux 999
▁gris 999
ll 999
▁véhicules 999
▁escort 999
▁journal 999
ay 999
midi 999
▁col 999
▁contient 999
▁Commission 999
▁principale 999
UE 999
entretien 999
24 999
▁arrivée 999
ies 999
▁procédure 999
▁déc 999
▁Peut 999
▁découvert 999
▁Parce 999
▁pire 999
▁appelé 999
appelle 999
▁Salle 999
▁Ensuite 999
▁vouloir 999
IN 999
▁entrée 999
nel 999
▁comportement 999
▁domaines 999
▁secret 999
▁utilise 999
gé 999
▁ceci 999
▁demain 999
▁séance 999
▁no 999
▁truc 999
▁tri 999
▁Q 999
▁école 999
▁ch 999
▁logique 999
cm 999
▁voulais 999
Lire 999
▁particuliers 999
▁organisé 999
▁telles 999
▁superbe 999
▁Monde 999
ser 999
▁mauvaise 999
ley 999
▁centrale 999
▁vêtements 999
▁lesquels 999
he 999
▁Montréal 999
▁indiqué 999
▁modifier 999
▁venu 999
▁organisation 999
▁capital 999
▁électronique 999
▁Mer 999
annonce 999
▁Pourtant 999
▁station 999
▁noire 999
informations 999
▁vote 999
▁résistance 999
▁pourraient 999
▁Bref 999
▁jeunesse 999
▁David 999
▁suivante 999
▁populaire 999
▁Jacques 999
▁réussite 999
▁hôtel 999
▁montagne 999
▁classement 999
▁st 999
▁connaît 999
environ 999
▁plantes 999
▁Mme 999
hiver 999
▁volume 999
▁écran 999
▁statut 999
▁dynamique 999
▁Monsieur 999
▁be 999
▁revanche 999
ane 999
▁clairement 999
17 999
▁désir 999
▁violence 999
▁vérifier 999
▁assure 999
▁partenariat 999
▁remise 999
▁vélo 999
▁attend 999
vin 999
▁demeure 999
▁PC 999
▁Vi 999
▁atteindre 999
▁atteint 999
isse 999
▁robe 999
avance 999
ki 999
▁bref 999
US 999
▁lait 999
▁Cuisine 999
▁gr 999
▁Quant 999
pas 999
▁espaces 999
▁2000 999
▁joué 999
▁charme 999
▁convient 999
▁légèrement 999
▁utilisant 999
▁financement 999
▁San 999
▁bus 999
▁messages 999
▁mail 999
▁recettes 999
▁complexe 999
▁associations 999
▁Noir 999
▁offres 999
org 999
op 999
▁changements 999
▁fan 999
tel 999
▁dur 999
▁Da 999
▁économiques 999
▁précédent 999
In 999
AC 999
90 999
tor 999
▁mises 999
▁dispositif 999
▁matériaux 999
ub 999
▁appareil 999
▁autorités 999
▁doux 999
auto 999
▁remettre 999
▁Dr 999
60 999
▁sent 999
let 999
▁Cap 999
▁humains 999
▁participants 999
▁banque 999
▁multiples 999
▁coups 999
▁victimes 999
▁élections 999
▁32 999
aise 999
▁pêche 999
▁douce 999
▁‘ 999
▁accessoires 999
▁réellement 999
▁intérêt 999
ade 999
▁per 999
ide 999
▁génération 999
ag 999
nant 999
ster 999
▁fr 999
▁Bou 999
ven 999
▁allons 999
▁résidence 999
▁cou 999
▁changé 999
▁di 999
▁portée 999
▁ancienne 999
▁réponses 999
▁reprendre 999
▁association 999
▁sentiment 999
ate 999
▁bac 999
▁faveur 999
▁présents 999
▁pur 999
35 999
exposition 999
▁conduite 999
▁sources 999
st 999
ist 999
▁récit 999
▁coté 999
exploitation 999
▁monter 999
affaires 999
▁télévision 999
ire 999
▁vécu 999
▁anniversaire 999
▁saint 999
▁plateforme 999
lant 999
▁effectivement 999
honneur 999
▁Mal 999
Afrique 999
▁neige 999
▁célibataires 999
▁commission 999
▁kilomètres 999
▁chiffre 999
▁naturelle 999
▁commercial 999
▁auteurs 999
▁savez 999
▁applications 999
absence 999
effet 999
▁lettres 999
▁joli 999
▁douleur 999
▁2007 999
▁retard 999
non 999
▁faux 999
▁festival 999
▁exactement 999
▁chaussures 999
affaire 999
▁américaine 999
▁net 999
▁technologies 999
Al 999
▁Ba 999
étaient 999
utilisateur 999
▁devra 999
▁Cha 999
▁vaste 999
▁Premier 999
ino 999
▁Cor 999
▁effectuer 999
▁france 999
▁pain 999
iques 999
▁stade 999
importance 999
▁portant 999
▁Ri 999
▁maire 999
▁particulière 999
▁batterie 999
onne 999
▁rapports 999
▁souvenir 999
▁conséquences 999
aider 999
▁garçon 999
▁détail 999
▁places 999
▁Bo 999
▁perd 999
▁régions 999
▁côtés 999
arrive 999
▁Ex 999
▁chanson 999
out 999
▁analyse 999
▁télécharger 999
26 999
▁(1 999
▁Com 999
▁Nouvelle 999
▁événement 999
▁conduit 999
▁citoyens 999
▁camp 999
▁décide 999
expression 999
▁Mes 999
▁Ho 999
▁Coupe 999
▁lance 999
▁Charles 999
ze 999
af 999
▁rare 999
▁planète 999
ign 999
▁appelle 999
▁combien 999
one 999
▁chargé 999
ong 999
ification 999
▁marketing 999
▁distribution 999
val 999
armée 999
▁voitures 999
▁visiteurs 999
▁précis 999
▁personnelles 999
usage 999
existence 999
▁regarde 999
▁Ad 999
▁forêt 999
▁bouton 999
assurer 999
▁fiche 999
▁Malgré 999
▁difficulté 999
habitude 999
ales 999
▁tissu 999
▁couverture 999
zi 999
▁opérations 999
▁locale 999
▁maman 999
attention 999
can 999
▁chaude 999
od 999
▁meubles 999
▁mérite 999
so 999
▁options 999
▁destination 999
agence 999
▁titres 999
▁officiel 999
▁fortement 999
▁revenu 999
▁appris 999
▁suit 999
▁bruit 999
ber 999
▁Super 999
▁Ga 999
▁mille 999
▁respecter 999
▁Gi 999
▁pointe 999
▁indique 999
▁actuelle 999
▁fenêtre 999
▁recours 999
▁notes 999
▁Quelques 999
▁Parmi 999
▁supérieure 999
ose 999
▁Air 999
▁prestations 999
ho 999
▁original 999
▁définition 999
▁formulaire 999
▁affaire 999
▁adapté 999
bi 999
▁tarifs 999
▁établissements 999
▁avions 999
tal 999
▁PS 999
▁immobilier 999
▁écrire 999
OS 999
▁crée 999
▁Toute 999
▁chiffres 999
▁achat 999
▁accessible 999
Or 999
▁dispositions 999
exercice 999
▁1. 999
▁thé 999
mes 999
▁publiques 999
▁indispensable 999
▁Club 999
▁An 999
▁secondes 999
▁printemps 999
▁apporte 999
▁rangement 999
ps 999
ations 999
▁ski 999
▁Groupe 999
▁proposons 999
▁envers 999
▁eaux 999
▁univers 999
▁énergie 999
▁informatique 999
▁Bois 999
France 999
▁Marseille 999
▁devis 999
▁responsables 999
écriture 999
▁vingt 999
▁Man 999
bas 999
▁Robert 999
lier 999
sion 999
▁trouvent 999
▁sciences 999
▁invite 999
▁confortable 999
▁restent 999
▁fichiers 999
▁règlement 999
Re 999
▁utilisés 999
▁amoureux 999
▁spécialiste 999
▁150 999
▁cru 999
▁musée 999
]. 999
Est 999
▁Sous 999
▁bilan 999
▁critères 999
▁personnalité 999
ole 999
▁tres 999
▁visiteur 999
▁auteur 999
▁promotion 999
▁graphique 999
and 999
▁boîte 999
▁déjeuner 999
▁ha 999
faire 999
▁candidats 999
▁extrêmement 999
▁acheté 999
▁simples 999
▁calcul 999
▁candidat 999
22 999
▁hasard 999
iers 999
▁barre 999
▁justement 999
▁cheval 999
▁marqué 999
mêmes 999
▁château 999
sol 999
ian 999
▁artistique 999
▁< 999
▁jaune 999
ey 999
Ar 999
▁collectif 999
▁murs 999
▁Russie 999
teur 999
lan 999
▁méthodes 999
▁pluie 999
▁ET 999
▁Pré 999
▁sable 999
▁avantages 999
▁Ka 999
▁is 999
ling 999
▁pont 999
▁tourner 999
nage 999
mail 999
▁attendant 999
▁plastique 999
▁revue 999
▁Afin 999
eu 999
▁silence 999
▁sex 999
▁Bonne 999
▁interne 999
▁faute 999
bert 999
▁danger 999
▁seuls 999
▁Col 999
▁hausse 999
▁science 999
chant 999
▁morts 999
29 999
▁suivantes 999
▁Ah 999
▁Haute 999
inscription 999
oise 999
▁nommé 999
▁léger 999
▁Code 999
▁ambiance 999
▁auront 999
▁équipements 999
▁dépend 999
▁oeuvre 999
▁énorme 999
▁rencontré 999
tier 999
▁(1) 999
▁bataille 999
▁char 999
ami 999
▁Ici 999
▁w 999
▁financière 999
▁ultra 999
▁locales 999
tic 999
▁soumis 999
ô 999
▁luxe 999
▁disque 999
▁Inter 999
▁tirer 999
▁ouvrir 999
issant 999
▁lecteur 999
étranger 999
▁signé 999
lement 999
tro 999
▁tradition 999
écoute 999
▁intérêts 999
▁cesse 999
▁pâte 999
▁36 999
▁mec 999
ssant 999
▁Martin 999
▁règle 999
▁Forum 999
▁entend 999
don 999
▁stress 999
▁Design 999
▁différent 999
▁seraient 999
...). 999
▁comptes 999
▁quitter 999
▁amie 999
▁revenus 999
▁TV 999
▁efforts 999
nie 999
▁content 999
▁scientifiques 999
▁cent 999
▁York 999
▁serez 999
ran 999
▁Celui 999
▁normes 999
▁Service 999
2. 999
▁Belle 999
▁traiter 999
▁proposition 999
▁littérature 999
▁.. 999
▁Japon 999
▁ouvrage 999
▁conséquent 999
uses 999
▁Pa 999
-19 999
▁nécessité 999
▁héros 999
▁légumes 999
ek 999
▁feuilles 999
▁Afrique 999
▁Toutefois 999
▁civile 999
▁Windows 999
▁représentant 999
▁inscription 999
obtenir 999
▁Ceci 999
▁vigueur 999
99 999
▁ordre 999
▁supplémentaire 999
▁produire 999
▁spécifiques 999
▁agence 999
▁sorti 999
▁Sinon 999
isé 999
▁actuel 999
cal 999
-1 999
▁prénom 999
▁rentrée 999
▁pa 999
▁chauffage 999
bon 999
▁Pe 999
▁lac 999
ano 999
▁Gu 999
▁enquête 999
▁entendre 999
men 999
55 999
▁video 999
▁formule 999
▁raconte 999
33 999
23 999
▁spécifique 999
âme 999
▁lesquelles 999
▁midi 999
▁porté 999
▁langage 999
▁argent 999
▁mouvements 999
31 999
▁tester 999
▁marchés 999
édition 999
▁fixe 999
int 999
▁usage 999
▁adulte 999
▁acte 999
▁chacune 999
▁Rien 999
▁parking 999
▁compétition 999
▁prison 999
rou 999
▁dimension 999
▁connexion 999
▁déclaration 999
▁dialogue 999
▁obtenu 999
▁central 999
▁faciliter 999
▁Ver 999
ini 999
▁48 999
▁° 999
▁Star 999
▁Porte 999
▁principales 999
▁https 999
▁bateau 999
▁prête 999
▁portable 999
▁préfère 999
32 999
▁Quelle 999
▁tourisme 999
▁diffusion 999
▁Porno 999
$ 999
vel 999
atrice 999
ris 999
▁Vidéo 999
▁Seigneur 999
église 999
inter 999
▁religion 999
▁prennent 999
▁savait 999
08 999
▁extérieur 999
▁longues 999
▁circulation 999
▁armes 999
ER 999
▁2018. 999
km 999
rais 999
aimerais 999
▁russe 999
dou 999
70 999
om 999
▁salles 999
▁demandes 999
▁Trouver 999
▁conçu 999
appareil 999
avis 999
▁Bordeaux 999
iv 999
gi 999
▁Beau 999
▁appareils 999
▁Marc 999
▁chasse 999
ip 999
▁Blanc 999
actualité 999
▁concurrence 999
▁étoiles 999
▁profondeur 999
naire 999
▁ventes 999
ach 999
▁remplacer 999
▁faudrait 999
▁parlé 999
▁situations 999
port 999
▁actes 999
ya 999
▁importants 999
▁John 999
05 999
▁Ko 999
ru 999
▁ateliers 999
▁souci 999
▁dirigeants 999
▁menu 999
▁(2 999
▁noms 999
▁communiqué 999
oir 999
aventure 999
▁malheureusement 999
ssent 999
▁Sou 999
▁National 999
▁décor 999
rin 999
▁personnelle 999
ète 999
▁montré 999
▁Am 999
▁maîtrise 999
ff 999
▁clés 999
▁augmenter 999
▁accompagner 999
▁établissement 999
eme 999
▁Aussi 999
han 999
▁utilisée 999
▁réforme 999
▁certes 999
▁originale 999
▁dessous 999
▁entière 999
▁chute 999
▁alimentaire 999
tt 999
▁machines 999
▁75 999
\ 999
28 999
▁Maintenant 999
▁paysage 999
▁envoyé 999
▁performances 999
▁avance 999
▁cherchez 999
the 999
▁2017, 999
▁piste 999
▁potentiel 999
AM 999
ow 999
ages 999
▁victime 999
vo 999
cu 999
antes 999
▁Recherche 999
▁Maroc 999
▁Toulouse 999
▁révolution 999
▁cycle 999
▁gare 999
▁furent 999
Ma 999
▁2006 999
▁comité 999
▁prenant 999
75 999
AT 999
aurait 999
ame 999
▁principes 999
lon 999
▁rentrer 999
▁invités 999
den 999
▁Bi 999
dis 999
ov 999
▁Fi 999
▁Laurent 999
▁suivants 999
by 999
▁centaines 999
▁venait 999
ines 999
ik 999
▁football 999
aires 999
▁Mor 999
▁découvre 999
▁moto 999
▁stage 999
▁courage 999
▁phénomène 999
ouvrir 999
▁donnent 999
apprentissage 999
intervention 999
ule 999
arrière 999
TE 999
27 999
▁Faire 999
▁400 999
ham 999
▁reconnu 999
04 999
44 999
▁Su 999
▁élément 999
bu 999
isant 999
berg 999
▁rappel 999
part 999
▁atelier 999
▁huit 999
▁installation 999
▁pensé 999
▁plateau 999
br 999
▁apparaît 999
▁expliquer 999
▁paroles 999
▁Là 999
▁vieille 999
▁chercheurs 999
▁dure 999
▁travaillé 999
▁devraient 999
dit 999
▁ben 999
▁formations 999
▁histoires 999
▁Rencontres 999
ray 999
▁33 999
émission 999
▁souvenirs 999
▁doigts 999
▁Leur 999
▁Jardin 999
▁juridique 999
▁sentiments 999
▁semblait 999
qua 999
▁envoyer 999
▁Faites 999
▁renseignements 999
ph 999
▁centres 999
fe 999
wa 999
éro 999
▁Bruxelles 999
▁dommage 999
opération 999
ayant 999
université 999
▁39 999
IS 999
bel 999
▁construit 999
rez 999
▁faits 999
▁entretien 999
eaux 999
▁conserver 999
▁climat 999
▁lycée 999
▁Londres 999
AL 999
06 999
urgence 999
cre 999
▁38 999
▁portrait 999
▁douceur 999
artiste 999
▁Char 999
▁échanges 999
ens 999
▁allant 999
oli 999
▁patient 999
▁tourne 999
▁entrer 999
▁attentes 999
▁réservation 999
tif 999
évaluation 999
▁cerveau 999
▁limites 999
▁rond 999
▁disent 999
▁automatique 999
▁lèvres 999
▁œuvres 999
On 999
▁rappeler 999
▁front 999
▁servi 999
▁reprise 999
▁Hu 999
▁toucher 999
ker 999
IE 999
table 999
▁chinois 999
pt 999
▁obligatoire 999
alité 999
▁sel 999
▁étapes 999
▁réussir 999
▁instant 999
ombre 999
▁réalisée 999
dy 999
▁actif 999
▁capacités 999
▁Sainte 999
nelle 999
▁arrêté 999
▁erreur 999
▁spécial 999
▁oublié 999
▁Ju 999
▁montage 999
uff 999
▁possibilités 999
▁girl 999
▁réelle 999
▁discuter 999
▁courte 999
09 999
ê 999
▁Salon 999
▁Publié 999
▁vise 999
dia 999
▁nourriture 999
▁inclus 999
▁lois 999
identité 999
▁bains 999
▁Port 999
▁ri 999
dans 999
ile 999
cy 999
▁repos 999
▁aventure 999
http 999
▁reconnaissance 999
élection 999
▁dédié 999
▁expériences 999
▁métal 999
▁impression 999
▁auquel 999
▁Ab 999
▁Table 999
.» 999
▁donnant 999
▁Plusieurs 999
▁fa 999
▁retourner 999
▁Mac 999
▁idéale 999
avantage 999
endroit 999
ér 999
▁Encore 999
▁Retrouvez 999
illon 999
02 999
”, 999
95 999
▁soutenir 999
▁toit 999
▁traduction 999
▁massage 999
▁ouvre 999
07 999
▁Auto 999
▁donnée 999
▁incroyable 999
investissement 999
▁financier 999
bar 999
▁Attention 999
▁réparation 999
▁fermeture 999
▁puissant 999
▁communiquer 999
ouest 999
▁traditionnelle 999
▁minute 999
▁déchets 999
▁exposition 999
nu 999
39 999
▁importe 999
▁solide 999
pin 999
▁Ro 999
ras 999
▁renforcer 999
lie 999
▁mandat 999
▁présidentielle 999
arrêt 999
▁médicaments 999
▁développé 999
▁fasse 999
court 999
▁conseille 999
▁souffle 999
▁sou 999
▁participe 999
▁missions 999
▁toile 999
▁secrétaire 999
▁relative 999
▁côte 999
tout 999
▁langues 999
OL 999
▁ajouté 999
▁suffisamment 999
▁maintenir 999
▁amateurs 999
quet 999
▁conséquence 999
▁élus 999
▁01 999
▁menace 999
comme 999
▁partis 999
▁Do 999
▁Luc 999
▁Va 999
aujourd 999
▁pensez 999
▁glace 999
▁supplémentaires 999
enquête 999
▁courrier 999
▁accueillir 999
48 999
▁réduit 999
▁échange 999
▁espèces 999
▁spécialement 999
01 999
▁opération 999
38 999
▁devenue 999
éré 999
▁cliquez 999
▁tarif 999
ud 999
▁active 999
▁permanent 999
▁description 999
▁Jo 999
mère 999
asse 999
▁signes 999
▁leader 999
▁couche 999
▁possibles 999
▁maladies 999
RE 999
▁2018, 999
LE 999
▁liées 999
▁sommet 999
▁ba 999
▁Festival 999
▁cap 999
cul 999
2, 999
▁préféré 999
▁Femmes 999
▁décisions 999
▁nécessite 999
▁Lu 999
▁transformation 999
ât 999
▁experts 999
▁montée 999
▁énergétique 999
▁autrement 999
▁garage 999
▁disait 999
▁travailleurs 999
▁nez 999
van 999
▁revoir 999
▁Tri 999
▁légère 999
▁naturellement 999
▁considéré 999
▁chapitre 999
▁enjeux 999
▁CO 999
▁cor 999
▁récupérer 999
34 999
▁prévention 999
ani 999
▁mener 999
anne 999
▁métiers 999
▁EN 999
▁camping 999
▁frères 999
▁préalable 999
▁classes 999
85 999
▁Comité 999
▁culturel 999
▁démocratie 999
▁Lo 999
attaque 999
nement 999
▁seins 999
▁rares 999
IC 999
▁Pen 999
▁transfert 999
▁Bal 999
nd 999
EL 999
ita 999
▁visant 999
▁apprécié 999
▁paris 999
▁serveur 999
▁Te 999
Institut 999
▁Article 999
atif 999
36 999
za 999
▁Trois 999
▁Pr 999
jo 999
▁Homme 999
▁Ra 999
100 999
▁phrase 999
▁présentes 999
▁agents 999
ju 999
▁chatte 999
▁journaliste 999
▁Photo 999
▁Chez 999
▁essentiellement 999
tis 999
▁Bernard 999
▁collège 999
▁proposent 999
▁matières 999
▁Black 999
rent 999
▁savent 999
mp 999
▁2016, 999
▁pre 999
▁Santé 999
▁Ligue 999
▁constitué 999
▁assurance 999
▁inscrit 999
▁colère 999
▁fi 999
▁coopération 999
▁option 999
▁55 999
▁rues 999
▁chaise 999
lit 999
▁accompagné 999
▁2015, 999
CE 999
▁semblent 999
esse 999
Assemblée 999
▁connue 999
▁Trans 999
▁remplir 999
▁fleur 999
▁vend 999
▁diversité 999
▁mé 999
▁déterminer 999
▁venue 999
▁amoureuse 999
cho 999
▁logiciels 999
▁Parti 999
▁philosophie 999
▁placé 999
▁coucher 999
▁Côte 999
omb 999
IA 999
▁offert 999
IT 999
▁fans 999
▁bassin 999
▁tapis 999
▁évolution 999
▁etre 999
▁installé 999
49 999
▁sensible 999
▁catégories 999
▁coton 999
▁néanmoins 999
▁Lui 999
▁excellente 999
all 999
▁organisations 999
▁météo 999
▁bâtiments 999
▁composition 999
▁na 999
▁discussion 999
ancienne 999
▁cabinet 999
MA 999
▁2004 999
▁patron 999
▁Van 999
▁médecine 999
TM 999
ières 999
▁engagement 999
▁cérémonie 999
▁financiers 999
téri 999
▁employés 999
▁automatiquement 999
▁réaction 999
▁accueil 999
ada 999
▁posé 999
▁mange 999
▁mar 999
▁Page 999
▁étrangers 999
37 999
gu 999
▁jugement 999
tan 999
aud 999
▁championnat 999
▁essayé 999
tage 999
▁baise 999
▁Sexe 999
▁situe 999
▁proposés 999
▁pot 999
cle 999
▁reprend 999
her 999
▁composée 999
▁vice 999
AD 999
03 999
▁cuisson 999
▁Cher 999
▁consommateurs 999
▁garantir 999
▁rubrique 999
▁(3 999
OR 999
▁Beaucoup 999
▁Rome 999
oire 999
▁profond 999
▁fins 999
▁accueille 999
▁augmentation 999
raient 999
▁bo 999
▁|-- 999
▁cache 999
▁accéder 999
▁disparu 999
▁circuit 999
▁stock 999
▁françaises 999
euses 999
▁cancer 999
▁disant 999
▁tests 999
ef 999
▁Ru 999
▁Tra 999
▁go 999
▁intervention 999
▁quasi 999
« 999
▁Bretagne 999
échange 999
ON 999
oul 999
exemple 999
▁secteurs 999
▁fruit 999
▁tâche 999
ep 999
nier 999
▁charges 999
▁jus 999
▁Père 999
▁quête 999
▁nettoyage 999
▁naturels 999
▁transformer 999
▁ressemble 999
fer 999
yn 999
▁familiale 999
▁hiver 999
▁06 999
▁Couleur 999
lle 999
▁imp 999
▁34 999
▁boite 999
▁poursuivre 999
ures 999
EM 999
▁décès 999
ative 999
▁ver 999
▁japonais 999
▁Carte 999
▁extra 999
▁voyages 999
▁plafond 999
▁exigences 999
▁mettant 999
▁look 999
▁étage 999
▁précisément 999
▁défendre 999
▁reconnaître 999
▁relativement 999
▁magie 999
▁morceaux 999
ind 999
▁épouse 999
▁bal 999
enfants 999
▁effectué 999
▁estime 999
▁hyper 999
▁rénovation 999
▁soyez 999
▁représentation 999
▁militaires 999
▁plats 999
▁vi 999
▁DU 999
▁Fer 999
▁billet 999
existe 999
▁former 999
▁humaines 999
▁précision 999
▁email 999
47 999
▁talent 999
éviter 999
65 999
▁Sol 999
▁biais 999
▁Is 999
lage 999
▁Wi 999
alimentation 999
nés 999
▁Bas 999
▁accepté 999
▁rock 999
▁jambes 999
▁conflit 999
▁auraient 999
bou 999
▁nul 999
▁terminé 999
▁Rose 999
▁structures 999
▁sommeil 999
▁boulot 999
▁riches 999
▁sombre 999
▁Anne 999
ira 999
▁désert 999
▁calendrier 999
acte 999
▁importantes 999
▁animal 999
▁théorie 999
▁soucis 999
▁solidarité 999
▁transmission 999
▁fêtes 999
▁expliqué 999
exception 999
▁III 999
▁immense 999
ado 999
▁impact 999
▁Place 999
ambiance 999
▁Bel 999
▁évident 999
▁institutions 999
▁surveillance 999
2) 999
AP 999
era 999
▁maintien 999
59 999
▁allemand 999
▁HD 999
▁score 999
▁dépenses 999
▁participé 999
▁modification 999
▁accepter 999
▁émotions 999
▁studio 999
▁personnels 999
▁lancement 999
▁laissant 999
▁tuer 999
ert 999
▁CD 999
▁fameux 999
▁Bra 999
▁chefs 999
▁résolution 999
▁dessins 999
▁ad 999
EN 999
5% 999
▁médecins 999
▁sensation 999
our 999
▁gagné 999
▁quotidienne 999
▁notion 999
▁collectivités 999
▁42 999
▁lié 999
▁directe 999
humanité 999
ça 999
tent 999
▁cible 999
off 999
▁spéciale 999
▁trafic 999
▁Musée 999
▁logements 999
▁officielle 999
▁feuille 999
▁définir 999
▁équipée 999
▁sauver 999
▁destiné 999
▁favoriser 999
oui 999
▁publicité 999
▁2005 999
acheter 999
▁restauration 999
amp 999
gie 999
▁can 999
▁Jeux 999
SA 999
illa 999
▁enseignants 999
cro 999
▁organise 999
▁lecteurs 999
▁magazine 999
▁vins 999
Au 999
ries 999
▁délais 999
ateurs 999
▁poche 999
ob 999
▁représentants 999
▁prévue 999
▁cadeaux 999
▁cookies 999
Allemagne 999
▁finit 999
▁Har 999
▁intérieure 999
▁licence 999
▁Allemagne 999
▁mo 999
▁restaurants 999
▁peint 999
▁diagnostic 999
▁hommage 999
▁correspondant 999
▁décrit 999
▁révèle 999
▁paraît 999
▁coûts 999
▁navigation 999
êtes 999
▁différente 999
▁scénario 999
▁triste 999
▁Suite 999
▁viande 999
▁recommande 999
▁catalogue 999
▁poudre 999
▁salope 999
▁chant 999
▁vallée 999
▁beurre 999
bre 999
▁remis 999
▁accident 999
▁commandes 999
▁Nantes 999
lay 999
rant 999
41 999
▁troubles 999
Association 999
animation 999
▁passée 999
ric 999
▁rejoint 999
uel 999
Nous 999
▁aspects 999
jou 999
▁pompe 999
▁mettent 999
▁européens 999
bit 999
▁reçoit 999
64 999
▁propriétaires 999
Un 999
▁Thomas 999
▁Loi 999
▁prestation 999
gen 999
▁solaire 999
▁Ti 999
▁clientèle 999
forme 999
approche 999
▁kg 999
▁propositions 999
ouvrage 999
▁parfum 999
▁organisée 999
▁Loire 999
efficacité 999
▁Gra 999
▁associé 999
▁magique 999
▁relève 999
▁cellules 999
▁électriques 999
▁ressort 999
▁lot 999
teurs 999
▁Ve 999
▁Christian 999
▁conduire 999
▁pouvoirs 999
▁culturelle 999
▁banques 999
▁pause 999
▁compréhension 999
▁contenus 999
▁bibliothèque 999
▁arbres 999
▁décret 999
tée 999
▁Banque 999
▁Bri 999
lis 999
▁tension 999
▁installer 999
ble 999
tine 999
▁kit 999
▁consultation 999
▁2014, 999
yl 999
▁man 999
▁nu 999
▁37 999
ouvre 999
▁pauvre 999
▁voyant 999
▁répondu 999
installer 999
fort 999
▁champs 999
▁postes 999
we 999
unité 999
▁liquide 999
▁Chi 999
▁chansons 999
▁Can 999
▁comporte 999
▁-> 999
ave 999
▁Home 999
▁endroits 999
▁Sam 999
▁vivent 999
vers 999
▁province 999
▁réalise 999
▁contente 999
▁eut 999
▁foule 999
▁épisode 999
Si 999
▁progrès 999
▁plaque 999
▁tiens 999
▁rêves 999
▁volet 999
électricité 999
▁voile 999
▁dangereux 999
▁geste 999
▁née 999
▁Royaume 999
étend 999
▁terres 999
▁qualités 999
aura 999
▁tournée 999
▁sûrement 999
▁gratuites 999
▁massif 999
▁65 999
Pierre 999
▁Alain 999
▁religieux 999
duc 999
abri 999
▁devons 999
▁1000 999
▁Mou 999
▁essentiel 999
▁standard 999
ng 999
▁am 999
▁compliqué 999
aille 999
▁remarque 999
”. 999
▁chômage 999
ange 999
ets 999
▁gratuits 999
▁soeur 999
▁constater 999
▁repris 999
▁exceptionnelle 999
▁dents 999
▁commerciale 999
▁transports 999
▁Claude 999
▁procès 999
An 999
▁facteurs 999
▁sec 999
▁rédaction 999
▁offrant 999
▁spécialisé 999
nique 999
utilise 999
▁régional 999
▁heureuse 999
▁spécialistes 999
IL 999
▁sexuelle 999
▁im 999
▁Guerre 999
▁gars 999
▁correctement 999
▁fuite 999
▁op 999
▁populations 999
▁thèmes 999
▁aspect 999
▁All 999
ifier 999
anti 999
▁globale 999
▁classiques 999
ET 999
▁fourni 999
▁convention 999
hôpital 999
lique 999
▁fur 999
▁contrats 999
▁coordonnées 999
bus 999
▁fe 999
iné 999
▁Description 999
▁collective 999
▁120 999
▁dizaine 999
▁blancs 999
▁44 999
▁rivière 999
!) 999
uc 999
IF 999
ara 999
tur 999
qué 999
IM 999
67 999
▁remplacement 999
▁énormément 999
▁Vie 999
▁Parc 999
innovation 999
▁couper 999
▁bu 999
aménagement 999
iel 999
▁cha 999
▁poisson 999
▁baiser 999
vent 999
▁horaires 999
▁grossesse 999
CI 999
▁froide 999
▁signature 999
▁créée 999
▁(18 999
▁mit 999
issement 999
▁u 999
rac 999
▁courses 999
▁Dis 999
▁mairie 999
▁drôle 999
▁Nouveau 999
▁pleinement 999
▁portail 999
▁250 999
études 999
▁lunettes 999
▁acquis 999
▁rupture 999
▁attaque 999
app 999
▁tenté 999
▁Fa 999
▁recul 999
▁ouverture 999
▁réfléchir 999
Ch 999
42 999
▁dimensions 999
▁poly 999
▁bloc 999
De 999
▁pop 999
▁Macron 999
aéroport 999
▁tr 999
▁représentent 999
▁International 999
▁tir 999
▁plante 999
▁rarement 999
ung 999
▁rouges 999
alcool 999
▁trou 999
▁Comp 999
▁déplacement 999
▁contenant 999
▁mécanique 999
▁ajoute 999
▁acier 999
rage 999
▁queue 999
▁ado 999
cer 999
▁fonctionnalités 999
abilité 999
▁Histoire 999
opposition 999
▁arts 999
envie 999
tait 999
▁prêts 999
lette 999
ori 999
og 999
88 999
uv 999
▁Mag 999
œil 999
▁étrange 999
ène 999
▁bases 999
▁grosses 999
nais 999
▁cool 999
lée 999
▁traité 999
sh 999
▁Jusqu 999
impact 999
▁!) 999
améliorer 999
▁pistes 999
▁équipé 999
▁ventre 999
Ouest 999
▁Sp 999
▁2017. 999
rer 999
▁pousse 999
▁We 999
▁flux 999
AN 999
az 999
▁pensées 999
▁mobilité 999
89 999
▁magasins 999
▁Ali 999
46 999
▁Fédération 999
gr 999
▁bat 999
▁déplacer 999
hu 999
▁Daniel 999
égalité 999
▁boire 999
▁chances 999
entend 999
ban 999
▁chiens 999
▁tube 999
▁rang 999
IP 999
▁installations 999
ill 999
▁Sé 999
▁organismes 999
vant 999
▁visites 999
engage 999
▁sorties 999
isée 999
▁remboursement 999
▁comprends 999
3% 999
▁Petite 999
▁reprises 999
▁2013, 999
ome 999
▁voudrais 999
▁interdit 999
▁établi 999
▁paysages 999
▁sub 999
▁Ki 999
▁pierres 999
▁résoudre 999
▁utiles 999
▁laissez 999
▁poursuit 999
▁majeur 999
▁salarié 999
UR 999
▁allé 999
▁Aux 999
▁miroir 999
▁recrutement 999
▁bancaire 999
organisme 999
▁tâches 999
▁smartphone 999
▁cal 999
▁black 999
▁Soleil 999
▁internationales 999
▁cri 999
▁Top 999
▁retrouvé 999
▁consacré 999
▁Madame 999
▁Moyen 999
▁battre 999
▁médical 999
ali 999
▁spécialisée 999
ui 999
autorité 999
▁rayon 999
▁lutter 999
ches 999
my 999
▁salaire 999
CA 999
▁richesse 999
▁2019 999
▁suisse 999
▁visible 999
▁dossiers 999
▁dépannage 999
▁loisirs 999
▁relatives 999
▁perspective 999
66 999
▁facilité 999
▁dizaines 999
▁photographie 999
▁motifs 999
▁concasseur 999
▁cons 999
intégration 999
▁apprend 999
ast 999
▁considère 999
▁morale 999
avaient 999
▁retirer 999
▁terminer 999
gar 999
▁pourrais 999
▁Italie 999
68 999
▁quatrième 999
▁bite 999
▁sœur 999
▁stockage 999
▁avais 999
▁Nationale 999
▁André 999
▁comprenant 999
▁séances 999
anglais 999
années 999
ida 999
▁ve 999
Saint 999
inscrire 999
▁offrent 999
initiative 999
Et 999
▁2003 999
SE 999
▁tribunal 999
▁bou 999
▁collègues 999
▁plaît 999
▁siècles 999
▁organiser 999
tour 999
▁poitrine 999
▁Mode 999
ug 999
rier 999
▁satisfaction 999
▁aliments 999
▁arrêt 999
▁Sch 999
Ce 999
ture 999
▁transition 999
mand 999
▁Rou 999
▁ra 999
▁intégré 999
Art 999
▁Toujours 999
▁issus 999
▁lol 999
zo 999
tation 999
▁Ã 999
▁Château 999
▁profonde 999
▁2012, 999
▁ravi 999
nent 999
▁avantage 999
▁motif 999
▁supprimer 999
▁Cal 999
▁doucement 999
élève 999
▁souhaitent 999
▁journalistes 999
événement 999
album 999
▁restant 999
▁identité 999
▁600 999
▁dép 999
▁Seine 999
▁quartiers 999
▁Bleu 999
ost 999
▁âme 999
▁verra 999
su 999
▁audio 999
quin 999
pré 999
û 999
▁cougar 999
▁prit 999
▁For 999
quer 999
issue 999
▁Culture 999
▁arabe 999
▁placer 999
oeuvre 999
▁Peu 999
▁pilote 999
92 999
▁Vos 999
▁lourd 999
agne 999
architecture 999
▁élu 999
▁Lorsqu 999
ères 999
▁chantier 999
▁configuration 999
▁mu 999
▁dites 999
78 999
▁primaire 999
▁artiste 999
EP 999
▁refus 999
▁terrible 999
▁Fin 999
▁Ceux 999
attente 999
▁sympathique 999
AF 999
▁dates 999
oeil 999
86 999
pot 999
▁croit 999
▁Min 999
▁variété 999
▁démocratique 999
▁modalités 999
▁Pont 999
agriculture 999
nom 999
échelle 999
▁parallèle 999
▁manifestation 999
vie 999
lou 999
▁viol 999
▁galerie 999
▁:) 999
arrêter 999
ight 999
ï 999
ain 999
▁séries 999
▁critiques 999
▁compléter 999
▁anciennes 999
▁caméra 999
▁bol 999
▁panier 999
pha 999
hé 999
AR 999
▁repose 999
▁constituent 999
▁individus 999
76 999
▁pure 999
OU 999
▁Sal 999
▁profession 999
▁tranquille 999
▁gras 999
ama 999
ball 999
Ex 999
tar 999
▁bijoux 999
▁Gr 999
offrir 999
▁DES 999
▁profite 999
info 999
▁régler 999
▁positif 999
ache 999
éd 999
ec 999
98 999
▁ren 999
▁aimer 999
▁amateur 999
▁Nice 999
▁Th 999
atoire 999
..... 999
▁limiter 999
▁Mars 999
▁Chat 999
▁actifs 999
▁Patrick 999
▁invité 999
▁Directeur 999
▁sportif 999
▁statistiques 999
OP 999
ect 999
▁venus 999
77 999
▁adaptée 999
▁claire 999
▁mention 999
▁handicap 999
▁prévenir 999
▁ST 999
amélioration 999
▁lever 999
▁Bu 999
▁termine 999
▁normalement 999
ati 999
▁mousse 999
▁indépendant 999
tres 999
▁colle 999
▁comp 999
▁soldats 999
▁puissent 999
▁ménage 999
▁passent 999
▁mets 999
ors 999
aine 999
▁CE 999
▁prends 999
▁choc 999
▁difficiles 999
▁développe 999
▁proposées 999
ote 999
▁assuré 999
▁dépôt 999
oo 999
▁quasiment 999
▁utilisées 999
▁laboratoire 999
apprendre 999
▁monte 999
lic 999
▁coquine 999
▁Android 999
▁intellectuelle 999
▁copie 999
▁paire 999
nis 999
voy 999
▁dédiée 999
▁tendre 999
▁économie 999
▁fine 999
▁boule 999
▁confirmé 999
▁venez 999
▁scolaires 999
▁dedans 999
▁Première 999
▁Ci 999
▁Taille 999
▁Annonce 999
essentiel 999
way 999
aurai 999
▁My 999
▁mourir 999
▁Red 999
▁chevaux 999
▁.... 999
▁Twitter 999
▁He 999
ax 999
ji 999
▁dormir 999
ces 999
exécution 999
▁Men 999
▁intéressante 999
▁vas 999
▁écoute 999
57 999
▁marcher 999
▁Sport 999
tri 999
▁territoires 999
▁villa 999
▁pareil 999
die 999
▁02 999
▁quitte 999
wi 999
▁gra 999
▁serais 999
▁Rouge 999
▁Meuble 999
temps 999
▁Région 999
▁sachant 999
▁trait 999
▁britannique 999
ime 999
▁constat 999
▁Oh 999
▁Her 999
ID 999
engagement 999
▁connaissent 999
oud 999
▁traces 999
ity 999
▁libres 999
humour 999
▁foot 999
▁ressenti 999
▁américains 999
plus 999
▁recommandé 999
▁monnaie 999
ible 999
PE 999
PS 999
espoir 999
OT 999
▁hôtels 999
OM 999
▁étions 999
▁décider 999
▁session 999
▁louer 999
col 999
▁priorité 999
▁perso 999
▁Za 999
94 999
rencontre 999
horizon 999
▁concentration 999
▁Ya 999
mas 999
▁musulmans 999
▁procédé 999
▁voies 999
▁ronde 999
▁frontière 999
▁intense 999
iller 999
activités 999
étant 999
▁SA 999
tez 999
▁programmation 999
▁trucs 999
▁réservé 999
43 999
logie 999
▁z 999
&#39; 999
oubliez 999
▁contrairement 999
▁sérieuse 999
▁judiciaire 999
Amérique 999
▁évidence 999
ographie 999
▁confirme 999
ieux 999
enne 999
UN 999
ell 999
▁appartient 999
▁Général 999
▁bureaux 999
▁traduit 999
▁historiques 999
ica 999
▁satisfaire 999
▁musicale 999
▁pauvres 999
▁journées 999
▁logo 999
▁Gratuit 999
▁destin 999
▁sauvage 999
tive 999
▁définitivement 999
▁contemporain 999
▁carton 999
▁tend 999
▁Bureau 999
appartement 999
▁affiche 999
adapter 999
met 999
▁poésie 999
▁agir 999
▁bl 999
▁Tom 999
▁débit 999
▁morceau 999
▁frappe 999
▁souligne 999
▁gel 999
▁parvenir 999
▁contrôler 999
équilibre 999
▁Bro 999
▁écouter 999
▁ins 999
▁prochaines 999
CO 999
▁panne 999
▁enfance 999
Uni 999
nce 999
▁détente 999
2% 999
▁mobilier 999
▁propriétés 999
▁os 999
EC 999
▁Genève 999
gan 999
▁Pu 999
▁Face 999
▁réserver 999
▁promouvoir 999
▁tire 999
▁Che 999
▁semi 999
▁billets 999
▁Marine 999
▁métro 999
▁malade 999
nal 999
ret 999
▁conseillé 999
▁ballon 999
▁manifestations 999
▁Certaines 999
vol 999
▁agricole 999
▁trente 999
▁souhait 999
▁Del 999
influence 999
▁Ke 999
54 999
▁Parlement 999
▁basé 999
▁poissons 999
tiques 999
▁Celle 999
▁huile 999
▁you 999
▁plages 999
▁Cre 999
of 999
▁testé 999
▁tours 999
▁Mur 999
97 999
▁pousser 999
▁Pat 999
▁gentil 999
▁modes 999
▁exceptionnel 999
▁civil 999
▁alimentaires 999
ice 999
▁quelles 999
▁fauteuil 999
én 999
▁internationaux 999
▁magnifiques 999
▁étrangères 999
▁subi 999
▁augmente 999
▁esthétique 999
▁Haut 999
trait 999
rai 999
tz 999
▁clubs 999
IR 999
avoue 999
▁nucléaire 999
▁43 999
▁sacré 999
▁prime 999
tr 999
▁proposant 999
king 999
▁cultures 999
mann 999
56 999
lat 999
▁fidèle 999
▁Bio 999
▁quels 999
ENT 999
vit 999
▁cacher 999
PA 999
▁(2) 999
▁précieux 999
▁tentative 999
▁Lille 999
▁vendeur 999
▁2016. 999
▁collaborateurs 999
▁préciser 999
▁Syrie 999
▁rep 999
ten 999
▁extrait 999
▁tome 999
▁PDF 999
vert 999
las 999
▁maintenance 999
▁Pan 999
▁attendu 999
87 999
79 999
▁Fort 999
▁connaitre 999
▁téléchargement 999
ari 999
▁canapé 999
▁comparaison 999
ouille 999
pl 999
▁Certes 999
58 999
▁coque 999
▁Olivier 999
gue 999
bat 999
▁avenir 999
▁trouvez 999
▁erreurs 999
▁réalisés 999
▁collections 999
▁adopté 999
▁modifications 999
ium 999
CH 999
rés 999
mat 999
▁diamètre 999
option 999
▁facebook 999
▁Henri 999
▁exclusivement 999
rice 999
▁créations 999
▁scènes 999
▁vertu 999
émi 999
51 999
▁label 999
▁digne 999
▁trouvait 999
▁importance 999
▁remarquable 999
▁collecte 999
▁Malheureusement 999
gel 999
▁Joseph 999
▁Vincent 999
ajouter 999
▁conformément 999
▁Ber 999
▁réalisateur 999
▁compétence 999
site 999
▁canton 999
62 999
▁contribuer 999
▁guitare 999
▁physiques 999
▁remet 999
▁béton 999
53 999
▁précédente 999
rs 999
▁deviennent 999
▁extraordinaire 999
▁annuel 999
▁publier 999
▁éditions 999
▁manquer 999
▁Formation 999
mis 999
agir 999
▁sauce 999
▁ouvrages 999
▁circonstances 999
▁populaires 999
▁auparavant 999
DE 999
▁continu 999
▁Gar 999
▁Fondation 999
▁Outre 999
▁conversation 999
toi 999
▁chic 999
▁aperçu 999
-0 999
▁Autre 999
▁modernes 999
SI 999
▁voyageurs 999
▁promis 999
▁pub 999
▁quelconque 999
▁Maître 999
▁naturelles 999
▁écologique 999
▁remarqué 999
▁quitté 999
▁vendu 999
aut 999
▁associés 999
Église 999
onde 999
▁Er 999
▁pouvais 999
▁instrument 999
▁Fe 999
▁fournisseurs 999
▁streaming 999
▁publiée 999
▁couples 999
▁tablette 999
▁VI 999
▁Travail 999
▁(4 999
▁grève 999
▁41 999
▁papa 999
▁garçons 999
▁Chaussures 999
=" 999
▁devront 999
▁défis 999
▁privés 999
▁rou 999
91 999
▁sortes 999
▁chauffe 999
tés 999
▁Georges 999
ther 999
CC 999
▁saisir 999
▁frontières 999
Espagne 999
▁facture 999
affiche 999
▁destinée 999
▁mobiles 999
atelier 999
▁moteurs 999
▁diplôme 999
▁Richard 999
intéresse 999
▁industriel 999
▁arrêter 999
▁© 999
emp 999
▁Ja 999
▁routes 999
sans 999
acquisition 999
▁motivation 999
dra 999
▁traditionnel 999
▁bonjour 999
▁Bain 999
▁éventuellement 999
Pour 999
▁bonus 999
▁04 999
▁division 999
▁navigateur 999
▁producteurs 999
▁pat 999
ég 999
▁sé 999
▁peuples 999
ria 999
▁USA 999
Plus 999
ute 999
▁Française 999
ary 999
écart 999
▁casse 999
▁Bé 999
96 999
▁tchat 999
▁Direction 999
▁Services 999
automne 999
-4 999
ting 999
▁ingrédients 999
Italie 999
▁Note 999
LA 999
▁limitée 999
▁savais 999
▁implique 999
log 999
▁réputation 999
▁gueule 999
sé 999
▁totalité 999
▁apparence 999
▁retrait 999
▁affirme 999
▁fatigue 999
▁ya 999
▁masque 999
▁Hi 999
▁contribution 999
lation 999
▁Né 999
▁gain 999
ial 999
Pro 999
rat 999
▁moral 999
▁numériques 999
▁aiment 999
▁mont 999
▁évoluer 999
▁Pou 999
▁paramètres 999
usine 999
▁payé 999
▁Master 999
▁Ton 999
▁Cul 999
▁Lunettes 999
▁médicament 999
▁progressivement 999
▁procéder 999
▁remarquer 999
63 999
▁Robe 999
▁sports 999
ature 999
▁automobile 999
▁Client 999
▁USB 999
▁gagne 999
ning 999
▁permanente 999
imp 999
▁info 999
▁Microsoft 999
▁prévoit 999
8% 999
erreur 999
▁soupe 999
69 999
▁Durant 999
▁Main 999
iz 999
▁ga 999
▁Montpellier 999
individu 999
▁blonde 999
▁prenez 999
▁adaptés 999
▁raconter 999
▁Four 999
▁2002 999
▁influence 999
▁Radio 999
▁européennes 999
▁prince 999
▁trace 999
▁sèche 999
74 999
▁fermé 999
bien 999
udi 999
cor 999
▁Université 999
▁Apple 999
▁dommages 999
▁Mé 999
▁Mai 999
igny 999
ros 999
▁Max 999
▁vocation 999
▁registre 999
▁permanence 999
gin 999
▁étudiant 999
▁candidature 999
▁espagnol 999
▁sûre 999
▁Mu 999
angle 999
▁don 999
▁montrent 999
gre 999
top 999
ick 999
500 999
6% 999
▁doigt 999
▁découvrez 999
▁soutenu 999
▁br 999
▁franchement 999
▁bouteille 999
▁favorable 999
▁(« 999
▁quart 999
▁live 999
▁pharmacie 999
▁record 999
▁présentent 999
ct 999
▁secours 999
▁fusion 999
▁villages 999
▁psychologique 999
▁800 999
▁constante 999
1. 999
envoyer 999
▁ab 999
▁Roi 999
▁exemples 999
▁Trump 999
-3 999
▁DVD 999
▁secrets 999
▁09 999
▁Free 999
▁récente 999
▁considérer 999
▁transmettre 999
▁Provence 999
ord 999
▁ferait 999
PI 999
▁trimestre 999
▁médicale 999
▁box 999
▁unités 999
▁connait 999
▁mène 999
▁Ph 999
▁salut 999
▁versions 999
▁citron 999
aspect 999
tons 999
▁tenant 999
ration 999
▁bleue 999
▁merveilleux 999
▁global 999
▁normale 999
▁degré 999
▁curieux 999
▁2010, 999
hésite 999
bourg 999
dd 999
gh 999
▁constituer 999
tom 999
Eglise 999
▁mature 999
▁free 999
▁q 999
▁2001 999
▁payant 999
▁dette 999
▁fromage 999
▁Néanmoins 999
▁sensibilité 999
‘ 999
▁el 999
▁Ham 999
Histoire 999
▁feront 999
▁commander 999
▁haine 999
form 999
inc 999
▁secondaire 999
nait 999
ft 999
▁verte 999
▁surpris 999
▁liée 999
▁communautés 999
▁basée 999
▁remercie 999
▁James 999
▁disposer 999
▁Emmanuel 999
plan 999
▁arme 999
▁références 999
▁foyer 999
▁profils 999
▁commerces 999
▁loup 999
▁ro 999
▁off 999
rée 999
▁résumé 999
▁Venez 999
▁fournit 999
▁culte 999
▁donnera 999
ney 999
▁LES 999
▁05 999
▁IN 999
augmentation 999
ives 999
▁buts 999
main 999
▁progression 999
▁reproduction 999
▁venant 999
ox 999
arrête 999
▁compatible 999
▁royaume 999
▁exercices 999
▁Aucun 999
▁Maurice 999
▁voisins 999
52 999
7% 999
▁précisé 999
intention 999
▁at 999
▁italienne 999
▁générales 999
▁Strasbourg 999
illy 999
Con 999
▁roulant 999
▁Salut 999
200 999
84 999
▁bénéficie 999
▁IP 999
▁volant 999
▁élève 999
▁casque 999
▁mou 999
.0 999
▁dirige 999
▁64 999
▁intitulé 999
▁Jack 999
ED 999
tit 999
▁lave 999
▁Nom 999
▁montagnes 999
▁connus 999
▁virus 999
▁compose 999
▁pédagogique 999
OC 999
Vi 999
▁déposer 999
▁fortes 999
▁stable 999
▁industrielle 999
▁Sciences 999
▁identifié 999
▁2011, 999
élé 999
▁Mr 999
▁disparition 999
▁symbole 999
inspiration 999
ero 999
▁mg 999
▁contraintes 999
▁pan 999
▁Heureusement 999
NA 999
gra 999
▁Livre 999
▁belge 999
▁49 999
▁46 999
▁tournoi 999
▁Christophe 999
▁Journal 999
ente 999
▁équilibre 999
uf 999
▁effort 999
▁noirs 999
ettes 999
▁pseudo 999
▁utilisateur 999
▁prière 999
▁conférences 999
▁norme 999
▁souris 999
ifs 999
▁larmes 999
▁matchs 999
ault 999
▁refuse 999
▁palais 999
écrire 999
ordinateur 999
▁interview 999
▁jusque 999
▁bizarre 999
▁Espagne 999
▁Front 999
▁émissions 999
▁balle 999
▁refaire 999
93 999
kin 999
▁investi 999
▁mono 999
bé 999
▁RE 999
▁littéraire 999
4% 999
▁FC 999
-2 999
▁million 999
▁autorisation 999
▁investissement 999
▁alimentation 999
▁sportive 999
▁relatif 999
▁tissus 999
▁emplois 999
bes 999
▁fonctionner 999
▁Lou 999
ième 999
ala 999
▁monté 999
▁répartition 999
▁so 999
# 999
pr 999
▁prof 999
▁clinique 999
▁courir 999
▁animé 999
▁utilisez 999
avion 999
hou 999
▁caisse 999
ola 999
attend 999
▁prépare 999
▁tombé 999
▁préserver 999
▁riz 999
▁pic 999
arc 999
▁économies 999
▁tonnes 999
▁inspiré 999
▁comparer 999
▁th 999
▁cercle 999
▁engagé 999
▁rec 999
▁inutile 999
▁08 999
▁show 999
hommes 999
▁faisons 999
▁panneaux 999
▁cam 999
▁taxe 999
trice 999
▁accompagne 999
lar 999
ib 999
zz 999
▁restera 999
83 999
▁stratégique 999
occuper 999
▁discipline 999
▁contemporaine 999
▁Dan 999
▁boucle 999
ator 999
-18 999
▁regroupe 999
▁gal 999
▁utilisent 999
▁star 999
enregistrement 999
▁fixé 999
▁remporté 999
▁52 999
▁coach 999
▁achats 999
▁World 999
▁rentre 999
▁pommes 999
▁Gros 999
▁fondée 999
box 999
Vous 999
xi 999
êt 999
entreprises 999
▁producteur 999
▁trompe 999
▁incontournable 999
▁oreilles 999
exprimer 999
illage 999
page 999
▁promo 999
▁gorge 999
nger 999
▁accessibles 999
har 999
▁2015. 999
▁farine 999
ME 999
▁orange 999
▁tendances 999
▁supporter 999
▁gardien 999
▁réglementation 999
▁câble 999
Fi 999
▁relever 999
▁longs 999
▁Ag 999
▁romantique 999
▁sportifs 999
▁convaincre 999
▁Nations 999
accompagnement 999
▁élevée 999
▁Ram 999
▁marine 999
▁photographe 999
▁internautes 999
▁témoignage 999
▁extérieure 999
▁Ser 999
▁concernés 999
▁maternelle 999
▁coûte 999
▁règne 999
jour 999
▁traite 999
over 999
▁remercier 999
▁Sha 999
▁abonnement 999
ç 999
▁branche 999
▁présentés 999
▁Vol 999
▁supports 999
otte 999
9% 999
▁apporté 999
▁jardins 999
isent 999
▁chair 999
▁absence 999
▁Ass 999
isés 999
igne 999
▁complexes 999
▁régionale 999
éni 999
▁saut 999
▁dépasser 999
éri 999
▁bête 999
iff 999
nois 999
▁Mini 999
▁canal 999
▁profondément 999
▁cre 999
Ré 999
▁chronique 999
▁Open 999
▁apprécier 999
▁individuelle 999
▁acteur 999
▁champion 999
entendre 999
dent 999
▁serai 999
▁positive 999
▁espèce 999
sky 999
▁conforme 999
▁CH 999
gy 999
▁module 999
▁écrite 999
▁alternative 999
▁créativité 999
▁conclusion 999
▁rempli 999
itaire 999
▁nationales 999
▁vague 999
▁monsieur 999
ction 999
▁guère 999
éti 999
▁pé 999
èle 999
▁prévoir 999
alisation 999
mal 999
lais 999
▁recherchez 999
▁essentielle 999
attendre 999
▁Cam 999
71 999
▁tables 999
▁Ministère 999
év 999
tie 999
▁acc 999
▁bis 999
▁ob 999
72 999
▁mentale 999
▁aff 999
▁complémentaires 999
▁obligations 999
président 999
▁documentaire 999
▁plu 999
▁financières 999
▁forts 999
▁correct 999
61 999
▁composants 999
mor 999
▁fallu 999
▁complément 999
▁voyez 999
▁environs 999
lor 999
▁rap 999
...), 999
▁ki 999
▁Sécurité 999
▁alentours 999
▁Date 999
▁enregistré 999
examen 999
▁vues 999
▁constate 999
▁personnalisé 999
▁mod 999
▁exercice 999
ANT 999
▁consacrée 999
équipement 999
laire 999
nn 999
are 999
▁flash 999
▁musiciens 999
▁sexuelles 999
▁03 999
▁liaison 999
▁générations 999
▁Data 999
▁génie 999
▁obligé 999
▁concerts 999
▁broyeur 999
élaboration 999
▁plate 999
pon 999
▁signal 999
ore 999
eacute 999
TS 999
▁docteur 999
▁plonge 999
▁futurs 999
▁aimez 999
ges 999
▁établir 999
▁marge 999
ôme 999
▁interventions 999
ace 999
▁allemande 999
▁jeter 999
▁tableaux 999
▁fausse 999
mn 999
▁tourné 999
▁oiseaux 999
▁future 999
▁Don 999
▁remonter 999
▁Hollande 999
▁présentée 999
▁grille 999
▁Tunisie 999
▁connaissez 999
▁bé 999
ult 999
▁ac 999
▁console 999
▁hein 999
▁(5 999
▁pensais 999
</ 999
▁cave 999
rite 999
shirt 999
▁reine 999
▁efficacité 999
vez 999
▁poster 999
▁citer 999
▁catholique 999
▁directrice 999
“ 999
▁Bienvenue 999
agissait 999
▁gu 999
cf 999
▁expertise 999
▁paraître 999
▁débats 999
▁int 999
▁Situé 999
▁Vo 999
▁ceinture 999
▁élégant 999
ssait 999
▁rendent 999
▁thèse 999
▁touristique 999
▁examen 999
DI 999
▁Appartement 999
serv 999
▁finition 999
▁fiable 999
▁Samedi 999
▁peintre 999
▁iPhone 999
▁procédures 999
envoi 999
égard 999
▁cliquant 999
▁pouvaient 999
▁Israël 999
▁épi 999
▁faim 999
▁van 999
▁souple 999
▁trajet 999
▁randonnée 999
▁Eric 999
FR 999
▁simplicité 999
▁épisodes 999
▁essai 999
▁finances 999
▁capitaine 999
▁Droit 999
▁suivent 999
▁soirées 999
▁organisme 999
▁expert 999
▁réalisées 999
ize 999
▁député 999
▁partagé 999
▁carré 999
▁filtre 999
▁Guillaume 999
▁Villa 999
▁Commentaires 999
vier 999
ifié 999
els 999
▁47 999
AGE 999
▁Retour 999
▁suppression 999
▁fréquence 999
▁inf 999
▁chère 999
RA 999
▁Tr 999
IG 999
▁chargée 999
▁appeler 999
Homme 999
▁connecter 999
ski 999
▁Hommes 999
▁conservation 999
▁57 999
▁piano 999
▁adore 999
▁95 999
▁bienvenue 999
elli 999
▁constructeur 999
▁continent 999
▁formidable 999
▁symbolique 999
▁confirmer 999
▁représenter 999
Co 999
▁couvre 999
▁Brésil 999
▁couvert 999
bl 999
ssé 999
▁Inde 999
▁familial 999
▁participant 999
▁déroule 999
inverse 999
▁linge 999
din 999
▁lumineux 999
▁astrologique 999
▁balcon 999
▁limité 999
▁attaques 999
1, 999
▁up 999
▁Guide 999
▁roues 999
▁manche 999
dont 999
▁majeure 999
▁suivie 999
ev 999
▁tirage 999
▁titulaire 999
▁fédéral 999
▁traitements 999
▁envies 999
▁Guy 999
▁fabricant 999
▁fenêtres 999
▁efficaces 999
▁travaillent 999
▁contacts 999
▁solo 999
El 999
▁équipement 999
▁Sarkozy 999
▁Développement 999
thé 999
ata 999
ssement 999
▁Palais 999
▁agit 999
▁Dominique 999
▁destruction 999
▁humeur 999
▁enceinte 999
applique 999
▁best 999
▁Gestion 999
▁cote 999
▁indépendante 999
del 999
▁assis 999
oux 999
▁issu 999
▁curiosité 999
▁choisissez 999
ok 999
▁empêcher 999
▁combats 999
Orient 999
▁menée 999
▁max 999
impôt 999
▁Film 999
▁dîner 999
▁folie 999
▁Sauf 999
▁chrétiens 999
▁commerciaux 999
▁Dou 999
▁symptômes 999
▁dose 999
▁promet 999
▁folle 999
▁boutons 999
▁apparaître 999
▁capables 999
rig 999
old 999
▁Dar 999
82 999
▁fournisseur 999
sée 999
ét 999
CHE 999
▁défend 999
▁touristes 999
▁Rue 999
▁complémentaire 999
▁conc 999
imi 999
▁Amérique 999
ack 999
chet 999
73 999
▁appelée 999
▁tué 999
▁prévues 999
▁Mel 999
▁codes 999
▁usine 999
adoption 999
▁répertoire 999
▁appliquer 999
enfance 999
▁Source 999
illes 999
▁italien 999
▁dame 999
▁LED 999
▁maximale 999
▁dispositifs 999
arbre 999
▁IV 999
▁serre 999
▁Cuir 999
▁google 999
3) 999
Ro 999
▁fiction 999
▁app 999
Inde 999
▁Déjà 999
▁tra 999
▁professeurs 999
▁réactions 999
inscrit 999
▁Ren 999
▁éco 999
▁07 999
▁descend 999
▁inscrits 999
▁dirigé 999
▁discret 999
extrême 999
▁interprétation 999
▁gestes 999
▁parlant 999
▁douze 999
▁troupes 999
nette 999
▁balade 999
▁virtuelle 999
ste 999
url 999
▁démarches 999
▁85 999
▁rétro 999
▁positions 999
▁Luxembourg 999
▁croix 999
▁1997 999
▁socio 999
▁Vente 999
▁fondateur 999
▁susceptibles 999
▁colis 999
▁publie 999
▁présentant 999
▁culturelles 999
▁coffre 999
Académie 999
▁protocole 999
nne 999
▁annuelle 999
issent 999
▁évoque 999
orientation 999
▁Photos 999
-5 999
▁US 999
Dé 999
▁constitution 999
▁Vert 999
RES 999
▁One 999
▁imaginer 999
▁Compte 999
▁proposée 999
▁2008, 999
▁voila 999
▁inférieure 999
▁rémunération 999
▁54 999
ARD 999
▁oblige 999
▁préférence 999
▁ennemis 999
▁euro 999
▁génial 999
▁agricoles 999
adaptation 999
▁Lit 999
sis 999
ssez 999
▁pratiquer 999
▁provenant 999
intelligence 999
▁mat 999
▁Cho 999
▁Kar 999
▁plombier 999
▁Berlin 999
anc 999
▁infos 999
▁Alpes 999
▁portent 999
▁touristiques 999
asser 999
▁race 999
gui 999
▁disponibilité 999
INE 999
▁Michael 999
▁conclu 999
▁Lot 999
▁sacs 999
▁all 999
▁dite 999
bal 999
▁aidé 999
rand 999
▁voyager 999
▁rendement 999
▁bouger 999
▁officiellement 999
▁mental 999
▁Surtout 999
nc 999
▁considérable 999
appui 999
▁Juste 999
nez 999
istique 999
mus 999
2018 999
▁Rhône 999
▁arbre 999
▁intervient 999
▁Cro 999
pan 999
î 999
▁voisin 999
▁750 999
érer 999
▁agent 999
▁2014. 999
▁optique 999
▁maillot 999
▁âgées 999
▁pantalon 999
amuser 999
▁Tar 999
EA 999
▁Nu 999
ima 999
▁casino 999
▁ho 999
▁nuits 999
lait 999
▁pl 999
▁mine 999
▁fameuse 999
▁informer 999
▁us 999
▁consultez 999
▁Rennes 999
▁origines 999
▁évènements 999
sta 999
éc 999
av 999
▁fondé 999
▁Mc 999
Algérie 999
▁souffrance 999
cin 999
▁destinés 999
Marie 999
▁facteur 999
▁Communauté 999
▁séparation 999
▁Politique 999
▁recommandations 999
gon 999
▁commerciales 999
▁pensent 999
▁graines 999
▁ikea 999
arme 999
▁essentielles 999
▁franc 999
ifi 999
▁file 999
▁discussions 999
▁Mise 999
▁marquée 999
▁savons 999
▁fixer 999
▁musical 999
▁Blog 999
▁SE 999
▁îles 999
▁nouveautés 999
▁temporaire 999
▁intégrer 999
▁parlent 999
leur 999
ude 999
Par 999
▁id 999
▁vingtaine 999
▁avocat 999
ves 999
▁moulin 999
▁Aucune 999
▁TVA 999
▁Vu 999
▁réagir 999
▁honte 999
pul 999
▁lancée 999
▁Ger 999
▁préparé 999
▁suffisant 999
▁existent 999
illi 999
?? 999
▁étonnant 999
▁espoir 999
▁affirmé 999
▁révolutionnaire 999
▁climatique 999
▁unité 999
▁refusé 999
▁gâteau 999
▁voter 999
▁citoyen 999
▁Programme 999
▁privées 999
essayer 999
▁chers 999
sous 999
ky 999
▁obligation 999
Ad 999
▁cuire 999
▁danse 999
▁bénéfice 999
▁thermique 999
web 999
▁confirmation 999
▁existence 999
▁Point 999
amb 999
▁synthèse 999
▁Julien 999
▁animations 999
▁féminin 999
▁pape 999
▁clavier 999
oi 999
▁voient 999
illé 999
niste 999
place 999
ffe 999
▁brut 999
ités 999
▁nettement 999
▁my 999
acteur 999
▁artisans 999
▁adoré 999
▁Concernant 999
▁poussière 999
▁BD 999
▁néo 999
cent 999
▁manches 999
▁pique 999
▁senti 999
▁saisons 999
empêcher 999
uk 999
mu 999
phone 999
▁Anti 999
▁souviens 999
▁douleurs 999
▁mauvaises 999
rit 999
▁Wa 999
▁romans 999
islam 999
▁surement 999
▁échelle 999
▁investissements 999
▁Sujet 999
▁auxquels 999
▁formé 999
riez 999
▁électro 999
▁Hé 999
▁Chef 999
yer 999
▁convaincu 999
▁rapides 999
▁essais 999
▁pétrole 999
▁Eh 999
▁Prenez 999
▁façade 999
▁Video 999
▁largeur 999
▁commencent 999
▁urbaine 999
▁externe 999
ouche 999
▁doté 999
▁avancer 999
▁habitudes 999
▁perception 999
ere 999
▁industriels 999
logue 999
▁Jour 999
▁mené 999
▁stratégies 999
▁Bre 999
idées 999
▁sexuel 999
▁comportements 999
▁souhaité 999
mit 999
▁bière 999
for 999
▁conflits 999
▁talents 999
fu 999
amitié 999
▁célibataire 999
assemblée 999
pir 999
▁Algérie 999
tions 999
▁manuel 999
▁dégâts 999
▁certificat 999
▁valable 999
▁spectacles 999
▁mixte 999
▁fluide 999
roy 999
ock 999
▁chats 999
assistance 999
▁conjoint 999
▁Mat 999
▁retourne 999
▁Grèce 999
organiser 999
▁défaite 999
card 999
▁Projet 999
ats 999
ève 999
outil 999
▁Inc 999
▁Association 999
▁agences 999
imagine 999
▁pratiquement 999
▁2009, 999
▁traits 999
▁saura 999
▁nationaux 999
▁chaleureux 999
cra 999
ula 999
▁arrivent 999
▁Auteur 999
▁graves 999
▁fermer 999
▁hâte 999
ège 999
▁chaudière 999
▁immédiate 999
mel 999
▁aventures 999
▁mobilisation 999
▁commis 999
▁180 999
▁Pascal 999
▁paru 999
▁nettoyer 999
▁subir 999
effectuer 999
▁accusé 999
Jean 999
yo 999
▁graisse 999
uz 999
▁bouge 999
▁parisienne 999
▁causes 999
UL 999
▁Denis 999
ple 999
épreuve 999
▁MA 999
▁habituellement 999
▁tort 999
Bas 999
▁Gérard 999
DA 999
▁températures 999
▁Cas 999
▁librement 999
▁cadres 999
pp 999
▁observer 999
▁financer 999
hier 999
▁ru 999
empêche 999
lam 999
TI 999
▁77 999
▁chanteur 999
▁Type 999
▁évaluation 999
▁urbain 999
dom 999
images 999
▁fabriquer 999
lia 999
▁permettront 999
dan 999
▁couture 999
▁rêver 999
▁Ministre 999
▁tournant 999
▁initiale 999
bri 999
actions 999
▁anglaise 999
▁émission 999
▁Mali 999
▁City 999
▁challenge 999
▁voulons 999
tisme 999
▁assister 999
▁Ed 999
éli 999
▁compagnon 999
▁Tags 999
▁Tel 999
▁Vers 999
▁vrais 999
▁veuillez 999
▁sonore 999
▁sélectionner 999
▁raisonnable 999
ifie 999
▁classé 999
▁stabilité 999
SC 999
▁terrains 999
▁;) 999
▁140 999
▁coupé 999
html 999
▁jou 999
▁Création 999
ico 999
sson 999
dor 999
▁escorte 999
▁Vin 999
1% 999
▁connecté 999
RI 999
▁périodes 999
tien 999
▁adresses 999
▁Stéphane 999
▁témoignages 999
▁couronne 999
▁bri 999
▁resté 999
cour 999
▁autonome 999
TA 999
▁Lien 999
▁robot 999
▁entraîne 999
▁dessert 999
▁Big 999
▁it 999
▁cheminée 999
▁policiers 999
▁jean 999
▁mecs 999
▁avion 999
▁vive 999
▁dieu 999
▁intervenir 999
apparition 999
Mar 999
mb 999
▁(6 999
▁différences 999
▁Théâtre 999
▁états 999
▁imposé 999
adi 999
1) 999
▁similaire 999
▁chemins 999
ologue 999
▁coiffure 999
▁Conférence 999
▁muscles 999
entraînement 999
▁bénévoles 999
▁banc 999
▁administrative 999
▁biologique 999
▁gré 999
autonomie 999
▁descente 999
▁combinaison 999
▁relevé 999
▁inscrire 999
agent 999
▁géant 999
▁1999 999
▁Profitez 999
uche 999
▁lentement 999
▁Rock 999
▁recueil 999
Agence 999
▁gardé 999
AB 999
▁chrétienne 999
Mais 999
AG 999
cas 999
rsquo 999
▁abandonné 999
sch 999
olo 999
▁Ins 999
▁fantastique 999
▁51 999
▁construite 999
▁PRO 999
ato 999
autorisation 999
▁solidaire 999
cré 999
sive 999
▁inférieur 999
▁!!!! 999
▁éclairage 999
▁universitaire 999
▁astuces 999
▁pollution 999
ath 999
▁démon 999
▁apparition 999
▁vivement 999
▁he 999
▁Tre 999
▁prochains 999
cou 999
▁WC 999
▁tiré 999
▁expression 999
▁Location 999
▁Gui 999
▁Gouvernement 999
▁Samsung 999
▁indi 999
explique 999
▁apparaissent 999
▁déclare 999
▁vif 999
▁Bruno 999
agisse 999
oy 999
▁Nombre 999
▁brun 999
éditeur 999
▁suppose 999
sk 999
ical 999
▁Simon 999
▁sélectionné 999
▁nue 999
▁détaillé 999
▁paquet 999
gne 999
▁matelas 999
▁refuser 999
▁relais 999
▁maquillage 999
▁libération 999
▁provoquer 999
▁réunions 999
▁flotte 999
hy 999
▁cardiaque 999
▁foncé 999
▁découvertes 999
▁crime 999
▁instruments 999
allais 999
▁égal 999
▁génétique 999
opinion 999
▁obtient 999
avère 999
▁fût 999
▁japonaise 999
▁souffre 999
▁1996 999
▁78 999
ATION 999
ié 999
▁masculin 999
▁CA 999
apporter 999
GA 999
▁cré 999
lés 999
▁législation 999
▁restait 999
▁veste 999
▁seules 999
cia 999
cri 999
▁révélé 999
▁carnet 999
▁attitude 999
▁intéressé 999
ake 999
▁touché 999
▁FR 999
ii 999
▁géographique 999
▁69 999
▁Pin 999
cip 999
▁religieuse 999
▁Antoine 999
MO 999
▁étudié 999
2017 999
ONU 999
▁vapeur 999
actu 999
▁Var 999
▁Générale 999
cule 999
▁appartements 999
pu 999
obligation 999
▁jugé 999
▁péri 999
graphie 999
▁courriel 999
▁jury 999
▁serrure 999
▁colonne 999
); 999
▁écho 999
emb 999
fin 999
Paul 999
ides 999
▁traditionnels 999
▁maîtres 999
▁retrouvent 999
▁contribue 999
▁nation 999
▁calculé 999
vir 999
▁King 999
▁Force 999
▁photographies 999
▁Avis 999
▁diffusé 999
▁68 999
endre 999
▁mariée 999
▁manipulation 999
sie 999
Une 999
▁grec 999
▁désigne 999
▁malades 999
▁satisfait 999
▁possession 999
▁Fu 999
▁conducteur 999
▁pomme 999
▁Faut 999
▁spirituelle 999
éra 999
▁lampe 999
▁rideaux 999
▁secondaires 999
dr 999
▁56 999
▁tas 999
▁constaté 999
▁fé 999
lac 999
▁épreuve 999
gle 999
▁viendra 999
▁optimale 999
rot 999
omp 999
▁déf 999
ren 999
▁députés 999
▁juger 999
▁pc 999
▁accordé 999
▁égard 999
DS 999
▁Ol 999
▁suspension 999
▁pauvreté 999
och 999
▁conte 999
▁emplacement 999
illant 999
▁seuil 999
odo 999
▁retenir 999
▁Post 999
▁har 999
rd 999
▁présentées 999
Me 999
low 999
-10 999
▁milieux 999
▁panneau 999
▁municipal 999
▁explications 999
▁justifier 999
▁ordinaire 999
avocat 999
source 999
▁perfection 999
▁Mis 999
▁clic 999
▁Fr 999
▁spécialisés 999
▁ar 999
▁00 999
ella 999
▁Trop 999
▁72 999
▁reconnaît 999
▁condamné 999
nière 999
▁verts 999
▁contactez 999
▁ouvertes 999
ail 999
lt 999
▁dévoile 999
▁spa 999
▁Voyage 999
▁mor 999
▁conserve 999
ites 999
▁Shi 999
▁rac 999
▁1980 999
uer 999
CR 999
▁Thierry 999
▁souligné 999
nay 999
▁trouble 999
▁diminuer 999
▁argument 999
▁légitime 999
▁management 999
▁Turquie 999
▁bandes 999
▁accompagnement 999
▁goûts 999
▁Ajouter 999
▁oeuvres 999
▁jouent 999
▁identifier 999
union 999
▁joint 999
▁rejet 999
▁chaînes 999
▁92 999
▁psycho 999
▁négociations 999
▁journaux 999
▁estimé 999
▁Ban 999
▁faibles 999
▁individu 999
▁hauts 999
▁Où 999
▁Finalement 999
▁adaptées 999
▁survie 999
▁plainte 999
▁comprennent 999
essence 999
olive 999
axe 999
arriver 999
▁féminine 999
effort 999
▁livré 999
▁700 999
▁Personne 999
▁décennies 999
IV 999
reux 999
Di 999
illard 999
père 999
ura 999
▁we 999
▁Bob 999
▁CC 999
▁inc 999
▁Département 999
book 999
cept 999
ige 999
▁quinze 999
▁révision 999
▁éducation 999
▁Sc 999
▁épreuves 999
▁asiatique 999
▁sécurisé 999
▁priori 999
▁guilde 999
▁0. 999
▁sensibles 999
not 999
▁couches 999
quant 999
▁accepte 999
▁Catherine 999
mant 999
▁Lac 999
▁écrits 999
▁sage 999
▁red 999
▁déplacements 999
▁cherchent 999
SP 999
mir 999
▁(17 999
▁transparence 999
▁démonstration 999
▁prouver 999
kg 999
▁envahi 999
▁dépasse 999
▁consommateur 999
indépendance 999
▁mystère 999
▁Dimanche 999
▁clan 999
▁ouverts 999
▁conf 999
DR 999
▁administratif 999
▁puissante 999
fil 999
▁Meilleur 999
▁authentique 999
▁zéro 999
▁Ge 999
▁État 999
rich 999
RO 999
▁graphiques 999
▁augmenté 999
▁psychologie 999
rus 999
tement 999
dés 999
éme 999
ken 999
▁armée 999
▁charbon 999
▁plongée 999
▁ge 999
▁Far 999
venant 999
blog 999
▁centaine 999
▁adopter 999
▁Allez 999
▁miel 999
act 999
star 999
▁délégation 999
▁concevoir 999
▁Nature 999
▁aient 999
▁Bravo 999
Luc 999
hen 999
▁Sar 999
rain 999
▁patience 999
▁Cliquez 999
ît 999
▁Liste 999
▁Blue 999
ash 999
vision 999
▁ressent 999
▁combattre 999
▁Peter 999
▁Réunion 999
▁nourrir 999
UM 999
▁parquet 999
400 999
▁ke 999
▁écriture 999
aucun 999
iennes 999
▁personnalités 999
▁brune 999
▁Côté 999
▁amitié 999
▁62 999
stitu 999
▁drame 999
▁bâti 999
▁ressentir 999
▁réduite 999
▁Em 999
81 999
▁latin 999
▁53 999
ores 999
▁meurtre 999
▁Chacun 999
▁réfugiés 999
▁Roman 999
▁sanitaire 999
UP 999
▁qualifié 999
▁Ly 999
dre 999
▁multitude 999
▁cliquer 999
▁fier 999
233; 999
nées 999
3. 999
▁sp 999
NE 999
▁légende 999
ili 999
▁efficacement 999
▁mesurer 999
▁initiatives 999
▁fleuve 999
▁déb 999
▁Seul 999
▁Fou 999
▁couvrir 999
▁dirait 999
lieu 999
▁tombée 999
▁racines 999
▁58 999
▁enlever 999
▁blanches 999
▁lisse 999
enfin 999
▁Sénégal 999
rique 999
▁intègre 999
▁boutiques 999
position 999
nat 999
▁uniques 999
▁problématique 999
▁transformé 999
sia 999
▁adolescents 999
ération 999
▁modifié 999
▁visibilité 999
▁esprits 999
▁Thi 999
▁progresser 999
▁envoie 999
▁retenue 999
▁bisous 999
▁Pé 999
▁MP 999
lip 999
taire 999
vet 999
▁Albert 999
▁Poste 999
▁façons 999
▁tennis 999
▁protège 999
▁Kit 999
▁pack 999
▁apprentissage 999
▁War 999
rel 999
▁At 999
▁seigneur 999
▁matériau 999
▁sublime 999
hal 999
▁160 999
ello 999
▁regardant 999
iale 999
▁investir 999
aque 999
èche 999
back 999
▁roue 999
▁abus 999
MC 999
ignon 999
rom 999
emplacement 999
▁similaires 999
▁pen 999
▁degrés 999
▁informatiques 999
▁fiscale 999
guer 999
▁mépris 999
▁emp 999
▁Affaires 999
ase 999
sible 999
▁George 999
▁ennemi 999
cus 999
▁créateur 999
▁pe 999
eo 999
▁plume 999
▁gloire 999
▁Trouvez 999
▁arc 999
▁You 999
▁adversaire 999
uri 999
humidité 999
Louis 999
▁lis 999
▁Frédéric 999
ition 999
TRE 999
▁59 999
bout 999
échec 999
▁prendra 999
nale 999
▁visité 999
▁dating 999
▁AL 999
▁signer 999
▁thérapie 999
▁poulet 999
): 999
fo 999
▁invitation 999
▁plaques 999
▁épaules 999
▁franco 999
intégrer 999
▁Tor 999
hébergement 999
▁issue 999
▁pis 999
▁carbone 999
Mo 999
▁2012. 999
▁faisaient 999
ots 999
tré 999
▁syndicats 999
▁électroniques 999
euil 999
▁nov 999
▁Ku 999
▁lits 999
▁coloris 999
▁Cu 999
▁Ze 999
▁Euro 999
▁dirigeant 999
animal 999
▁définitive 999
zy 999
▁garanties 999
▁heureusement 999
▁baignoire 999
▁constamment 999
▁noix 999
observation 999
▁détruit 999
▁duquel 999
▁duo 999
▁finance 999
▁Grenoble 999
▁PME 999
▁Yo 999
BA 999
▁Wal 999
attends 999
▁servent 999
day 999
▁em 999
CP 999
4) 999
▁disposent 999
mois 999
▁nécessairement 999
▁aluminium 999
▁Contrairement 999
aga 999
▁XIXe 999
▁Télé 999
▁comédie 999
crit 999
▁violences 999
▁Quoi 999
uch 999
▁debout 999
▁significative 999
▁couteau 999
▁(7 999
▁demandent 999
▁rat 999
▁xxx 999
▁her 999
▁ressource 999
▁passages 999
▁inoubliable 999
▁chemise 999
▁réuni 999
▁baie 999
▁scandale 999
/10 999
▁accompli 999
▁Européenne 999
▁Musique 999
len 999
▁dépendance 999
point 999
olé 999
▁av 999
▁amène 999
EUR 999
▁individuel 999
▁apparemment 999
▁île 999
▁Lumière 999
ito 999
▁libérer 999
rès 999
alors 999
▁canadienne 999
▁Meetic 999
▁apres 999
▁attirer 999
▁styles 999
humain 999
anda 999
▁Wall 999
▁passionné 999
▁stations 999
▁francs 999
pos 999
▁occupé 999
▁Los 999
▁preuves 999
▁from 999
▁frappé 999
▁pute 999
▁déposé 999
▁courts 999
▁étudier 999
resse 999
▁Sun 999
▁Libre 999
▁Gris 999
▁personnellement 999
eries 999
▁évolué 999
▁diriger 999
▁énergies 999
▁Série 999
▁chi 999
▁charmant 999
▁informe 999
▁Arts 999
gri 999
▁golf 999
▁rayons 999
▁UN 999
▁Cl 999
▁gen 999
▁crédits 999
°1 999
▁René 999
▁Présentation 999
▁confié 999
▁initiative 999
▁Royal 999
▁noires 999
ram 999
▁data 999
hr 999
ép 999
ping 999
▁Constitution 999
▁joindre 999
▁probable 999
▁chanteuse 999
▁stand 999
▁régionales 999
▁islamique 999
viv 999
▁tenait 999
▁falloir 999
▁déterminé 999
▁princesse 999
éclairage 999
▁fiches 999
▁As 999
▁transforme 999
▁réunir 999
▁sexuels 999
▁campagnes 999
▁délicieux 999
▁plomberie 999
▁Fête 999
▁not 999
▁DS 999
▁marquer 999
▁Etat 999
▁thématique 999
▁Girl 999
▁récupération 999
▁Marcel 999
bra 999
▁nationalité 999
▁ép 999
▁Gilles 999
ous 999
▁dirais 999
▁responsabilités 999
▁lève 999
▁alliance 999
▁garantit 999
▁huiles 999
▁lumineuse 999
gent 999
▁opérateurs 999
▁1994 999
▁analyses 999
▁CR 999
▁passées 999
appuie 999
▁origine 999
▁jolies 999
aki 999
▁immobilière 999
▁Autres 999
▁vainqueur 999
▁occupe 999
ral 999
expertise 999
▁conformité 999
▁Bru 999
▁Washington 999
▁Parfois 999
▁Mas 999
▁tranche 999
aval 999
▁immeuble 999
▁pente 999
▁urgence 999
▁congrès 999
▁Vendredi 999
▁libertin 999
▁Cast 999
chu 999
▁1970 999
▁intéresse 999
▁atteinte 999
usse 999
▁pouces 999
▁réfléchi 999
▁aussitôt 999
▁goûter 999
▁Bla 999
uy 999
▁socialiste 999
▁arrondissement 999
▁business 999
▁susceptible 999
▁Méditerranée 999
ku 999
▁temple 999
▁rendue 999
▁Alexandre 999
▁réparer 999
▁voté 999
▁planification 999
▁toilette 999
▁67 999
▁logistique 999
expliquer 999
▁pal 999
ulation 999
alo 999
▁impressionnant 999
▁Visite 999
▁rechercher 999
▁reposer 999
▁jupe 999
▁Escort 999
▁coupable 999
▁plait 999
▁traverser 999
▁Dame 999
▁réside 999
▁schéma 999
▁] 999
▁Corse 999
▁impôts 999
▁fabricants 999
▁poignée 999
▁cabine 999
éo 999
▁distingue 999
▁Fo 999
Alpes 999
▁universelle 999
odeur 999
▁chimiques 999
▁dessinée 999
▁signification 999
▁regret 999
▁fun 999
▁Bay 999
▁poli 999
▁poussé 999
▁rigueur 999
▁vo 999
▁régulière 999
▁égale 999
ppe 999
▁vivante 999
▁clôture 999
éné 999
▁débute 999
▁francophone 999
angoisse 999
▁Autant 999
▁choisis 999
accent 999
▁Tant 999
▁ok 999
▁matériels 999
▁new 999
▁variable 999
▁remonte 999
Car 999
▁résister 999
Am 999
▁frein 999
▁saine 999
▁fidèles 999
▁pourriez 999
▁Mus 999
▁Victor 999
osse 999
eng 999
accident 999
▁opposition 999
▁GR 999
▁Communication 999
impose 999
▁Corée 999
▁échanger 999
▁marron 999
▁exercer 999
▁Ros 999
aka 999
▁artisan 999
▁spirituel 999
▁voler 999
▁chapelle 999
Angleterre 999
▁rappelé 999
▁Quels 999
▁Système 999
▁laissent 999
▁récolte 999
▁désigné 999
bin 999
▁coco 999
▁caractères 999
duction 999
▁internes 999
▁saurait 999
The 999
appliquer 999
engager 999
▁évoqué 999
bie 999
▁pin 999
▁Temps 999
▁thématiques 999
▁récent 999
Com 999
▁May 999
▁attendent 999
▁Im 999
▁commandé 999
▁reconnue 999
▁angle 999
▁civilisation 999
▁livrer 999
MI 999
▁Bac 999
▁déficit 999
ith 999
ING 999
ume 999
▁âgé 999
▁requête 999
ense 999
▁élevés 999
▁Net 999
▁éc 999
▁sensations 999
ssy 999
▁attente 999
▁2013. 999
▁form 999
RC 999
– 999
▁poil 999
▁Pla 999
▁fortune 999
▁Fonds 999
los 999
▁1998 999
▁technologique 999
cc 999
▁Mad 999
▁suffisante 999
▁bateaux 999
chev 999
▁marchandises 999
▁profitez 999
▁profité 999
▁généraux 999
▁ministres 999
▁média 999
▁pilotes 999
encontre 999
▁Cité 999
▁vaccin 999
▁devaient 999
▁paradis 999
▁prostituée 999
occupe 999
oph 999
▁soutient 999
▁sortant 999
▁poétique 999
▁passait 999
▁tiendra 999
▁Maria 999
▁édité 999
▁sauvegarde 999
get 999
▁trio 999
tain 999
▁nulle 999
▁précédentes 999
▁honnête 999
four 999
▁indépendants 999
2014 999
▁drogue 999
informatique 999
accéder 999
ssons 999
ust 999
▁monuments 999
▁détruire 999
▁boissons 999
ménage 999
▁détour 999
ssage 999
▁jazz 999
▁conçue 999
▁placement 999
▁tre 999
▁compositeur 999
nos 999
▁aides 999
▁naviguer 999
▁parcourir 999
ars 999
▁manqué 999
cur 999
▁virtuel 999
▁Gen 999
océan 999
▁sauter 999
▁fixation 999
▁ras 999
▁). 999
▁précédents 999
ST 999
▁Mark 999
▁précédemment 999
pens 999
UC 999
▁entouré 999
▁déménagement 999
▁(3) 999
AU 999
▁enregistrer 999
▁sportives 999
PC 999
▁sols 999
▁Exemple 999
▁tactile 999
▁PA 999
culaire 999
▁do 999
▁usages 999
▁texture 999
èse 999
▁visuel 999
▁Hy 999
▁Normandie 999
▁procurer 999
▁défini 999
▁armoire 999
▁cra 999
▁parent 999
▁clip 999
EST 999
▁filiale 999
mission 999
▁2007, 999
▁supprimé 999
▁Studio 999
▁cuillère 999
▁fumée 999
▁africaine 999
GE 999
▁prés 999
▁souffrir 999
▁observe 999
immigration 999
▁Blanche 999
aurez 999
▁correspondance 999
▁Ker 999
ual 999
lim 999
rateur 999
herbe 999
▁considérée 999
▁passagers 999
▁Actualités 999
▁témoins 999
▁lourde 999
suiv 999
▁CN 999
▁ultime 999
▁variés 999
▁supplément 999
▁vols 999
▁rajouter 999
▁SI 999
▁informé 999
tru 999
▁glisser 999
▁appartenant 999
▁suspect 999
▁désirez 999
▁Music 999
ologique 999
▁put 999
▁compteur 999
▁poêle 999
▁circulaire 999
essai 999
▁spectateurs 999
▁médiatique 999
cl 999
▁consommer 999
▁évènement 999
▁superficie 999
▁pédagogiques 999
▁confidentialité 999
▁continuent 999
-8 999
▁militants 999
oto 999
▁adhérents 999
▁papiers 999
▁Hôtel 999
▁balance 999
▁cuivre 999
▁corruption 999
▁Aide 999
doc 999
▁gout 999
parole 999
▁favoris 999
zer 999
▁vernis 999
▁accueilli 999
▁Alex 999
▁noté 999
nard 999
mine 999
▁émis 999
ish 999
François 999
Israël 999
Internet 999
▁pensait 999
▁Reste 999
entrer 999
▁stars 999
▁forfait 999
▁res 999
▁apport 999
▁Anglais 999
oche 999
▁interface 999
ards 999
▁Contactez 999
▁intention 999
▁pertes 999
bul 999
▁toiture 999
▁inconnu 999
▁imprimé 999
▁autorisé 999
▁SC 999
▁investisseurs 999
▁Ter 999
eg 999
▁intime 999
rine 999
lio 999
▁surprises 999
▁plomb 999
▁architecture 999
▁Madrid 999
▁soigner 999
oni 999
▁poursuivi 999
▁réaliste 999
AV 999
▁révéler 999
▁conseillers 999
▁ordonnance 999
▁cinquième 999
ESS 999
intégralité 999
▁auxquelles 999
▁consultant 999
▁pattes 999
▁Br 999
▁concepts 999
▁Op 999
▁invisible 999
RS 999
▁expositions 999
habitation 999
via 999
▁50% 999
▁Fil 999
▁générique 999
▁») 999
Euro 999
▁manifeste 999
▁FN 999
▁commissaire 999
▁Bur 999
ements 999
▁poète 999
rog 999
▁exclusif 999
▁Long 999
▁end 999
< 999
▁serrurier 999
▁départements 999
▁enseigne 999
▁merveille 999
▁laser 999
gal 999
▁blessé 999
cat 999
▁dépassé 999
▁Espace 999
▁Cou 999
gni 999
▁Pic 999
ôt 999
uvre 999
▁Défense 999
▁63 999
▁Dom 999
▁respecte 999
▁réunis 999
logique 999
▁saisie 999
▁dia 999
gg 999
▁tournage 999
▁taches 999
▁regrette 999
▁concentrer 999
▁ordres 999
▁adaptation 999
▁rez 999
▁Ob 999
▁perspectives 999
▁tranquillement 999
▁che 999
gré 999
▁distinction 999
▁sévère 999
▁filière 999
▁entraîner 999
▁renforcement 999
▁Att 999
▁Gl 999
▁valide 999
▁webcam 999
▁portefeuille 999
St 999
▁toilettes 999
▁signaler 999
▁” 999
ITE 999
▁traités 999
▁Commerce 999
office 999
pes 999
▁amené 999
▁corriger 999
▁compagnies 999
▁mix 999
▁terminée 999
rien 999
▁ml 999
▁choisit 999
altitude 999
▁Journée 999
gué 999
▁employé 999
▁passionnés 999
▁chaudes 999
opportunité 999
▁étudiante 999
▁silhouette 999
Esprit 999
cker 999
▁1992 999
nisme 999
▁...) 999
▁voyait 999
prix 999
ann 999
▁mathématiques 999
▁mien 999
acheteur 999
▁cellule 999
▁conclure 999
UT 999
▁guider 999
▁bénéfices 999
▁philosophe 999
▁visiblement 999
-12 999
▁refuge 999
▁chaises 999
▁descendre 999
photo 999
▁Quelles 999
▁ka 999
ogne 999
IQUE 999
▁Barcelone 999
▁Rendez 999
▁remplacé 999
▁communautaire 999
▁exprimer 999
AI 999
▁PO 999
▁passés 999
lice 999
▁collier 999
▁Sta 999
▁Modèle 999
▁présidence 999
▁Protection 999
▁charte 999
armes 999
çant 999
▁franchise 999
▁fabrique 999
▁indiquer 999
▁culturels 999
▁accompagnée 999
▁Agence 999
▁renseigner 999
▁prochainement 999
▁qualification 999
▁prononcé 999
▁retenu 999
ido 999
▁feux 999
▁archives 999
tern 999
▁matinée 999
▁souhaiter 999
▁Soit 999
▁traverse 999
▁poches 999
▁nations 999
OI 999
▁tuto 999
▁chauffeur 999
▁stages 999
▁1993 999
▁migrants 999
▁caché 999
▁Sénat 999
▁instants 999
▁66 999
▁suicide 999
lum 999
▁dég 999
éléments 999
▁crainte 999
encre 999
rive 999
▁office 999
▁succession 999
▁Jeu 999
▁réservée 999
▁Prince 999
▁répondant 999
php 999
▁rendant 999
coup 999
▁bru 999
▁Mexique 999
▁fréquemment 999
▁vérification 999
▁Sophie 999
▁strictement 999
▁témoin 999
▁bandoulière 999
hon 999
ieu 999
▁mutuelle 999
▁épais 999
chon 999
nou 999
▁spéciaux 999
▁Convention 999
▁nourri 999
▁renouvellement 999
abo 999
eb 999
▁provoque 999
▁Jan 999
▁fl 999
igue 999
OUR 999
▁posté 999
▁doublé 999
▁habitude 999
▁abrite 999
Michel 999
lus 999
▁Croix 999
▁rapporte 999
▁1990 999
▁accords 999
▁entourage 999
▁tiennent 999
▁navire 999
pper 999
▁actuels 999
▁pôle 999
▁imaginé 999
▁TR 999
stein 999
▁hi 999
▁Congrès 999
oreille 999
atteindre 999
augmenter 999
considérablement 999
▁chinoise 999
pre 999
▁sois 999
▁validation 999
▁merveilleuse 999
▁_ 999
▁Galerie 999
▁extrême 999
Ecole 999
▁associée 999
▁Pri 999
▁diffuser 999
▁tape 999
pie 999
▁merde 999
rt 999
▁poivre 999
▁grise 999
tivité 999
▁affronter 999
▁transmis 999
▁Catégories 999
▁sincère 999
▁résulte 999
▁mélanger 999
▁surfaces 999
▁exploitation 999
amis 999
▁devrais 999
▁engagements 999
-6 999
▁Yu 999
▁tasse 999
apport 999
▁forêts 999
truc 999
▁juifs 999
▁sérénité 999
ë 999
▁hautes 999
▁sagesse 999
mou 999
▁concernent 999
▁TF 999
▁chirurgie 999
▁?? 999
▁99 999
▁2) 999
▁protéines 999
aison 999
dos 999
▁armées 999
▁humide 999
▁trés 999
por 999
▁forment 999
▁usagers 999
▁Gare 999
EF 999
▁universel 999
▁faciles 999
▁brillant 999
▁blessures 999
ius 999
▁numéros 999
ove 999
▁allée 999
▁autonomie 999
▁Han 999
▁marin 999
▁compromis 999
kh 999
▁décida 999
ring 999
imo 999
but 999
▁artificielle 999
ware 999
▁SP 999
▁Presse 999
▁vitrine 999
▁fondation 999
▁possèdent 999
▁royale 999
▁mécanisme 999
TT 999
▁Révolution 999
▁sérieusement 999
fond 999
▁neutre 999
▁chapeau 999
intermédiaire 999
émotion 999
nov 999
▁juridiques 999
▁rachat 999
▁76 999
RP 999
▁catastrophe 999
▁correspondent 999
▁incluant 999
▁She 999
▁Pal 999
▁branches 999
▁Green 999
mber 999
ifiant 999
Paris 999
▁mignon 999
▁Public 999
▁Manuel 999
▁MAR 999
▁séduit 999
▁1) 999
immobilier 999
▁traditions 999
▁Index 999
▁Mil 999
▁appels 999
▁dégage 999
▁Hotel 999
▁pourcentage 999
▁manager 999
▁communs 999
rir 999
▁tailles 999
▁arabes 999
▁occidentale 999
▁arrivés 999
▁timide 999
▁enseignement 999
▁sièges 999
▁Juin 999
▁dramatique 999
interprétation 999
▁ramener 999
▁Angleterre 999
laient 999
active 999
▁cage 999
▁concentré 999
▁Consultez 999
▁contenir 999
bour 999
ben 999
▁légal 999
▁CM 999
lig 999
▁législatives 999
▁écrivain 999
▁continuité 999
▁regardé 999
▁Annonces 999
▁maîtriser 999
▁Marque 999
▁favori 999
lem 999
▁publications 999
▁ridicule 999
Li 999
▁Donald 999
▁déguster 999
▁home 999
▁Claire 999
ei 999
▁lâche 999
▁!" 999
▁Serge 999
▁disparaître 999
ich 999
▁bravo 999
▁teinte 999
▁promesse 999
tter 999
▁cr 999
vais 999
▁fidélité 999
▁entrain 999
▁salaires 999
▁prévisions 999
▁constituée 999
▁artistiques 999
▁trous 999
▁William 999
▁fabriqué 999
▁(+ 999
PL 999
fér 999
▁10% 999
habite 999
▁légales 999
▁cherchant 999
▁courtes 999
▁illustre 999
▁occasions 999
▁décrire 999
▁promenade 999
asso 999
▁carburant 999
▁véritablement 999
▁anonyme 999
pla 999
▁Maire 999
▁2006, 999
▁scrutin 999
▁assurée 999
▁Sy 999
▁exprime 999
▁exposé 999
▁Sh 999
▁certification 999
tech 999
▁présidente 999
▁palette 999
▁pinterest 999
▁électeurs 999
▁hard 999
long 999
bor 999
dine 999
▁Veuillez 999
▁datant 999
▁puissiez 999
▁teint 999
étage 999
épisode 999
▁exemplaires 999
PR 999
toy 999
▁Kan 999
▁divin 999
▁rage 999
heim 999
▁Novembre 999
▁librairie 999
▁litres 999
▁devrez 999
employeur 999
▁monument 999
isson 999
▁saisi 999
▁volumes 999
ml 999
▁filet 999
ennemi 999
prim 999
Sa 999
instrument 999
atmosphère 999
▁Love 999
établir 999
▁130 999
▁déclarations 999
▁Réseau 999
▁blessés 999
▁Disponible 999
france 999
▁coordination 999
▁délégué 999
▁coller 999
lla 999
▁correction 999
▁bro 999
ours 999
▁répondent 999
▁étrangère 999
▁souverain 999
▁dragon 999
▁ass 999
AY 999
rap 999
lons 999
▁jouets 999
haus 999
▁case 999
▁sale 999
▁séduire 999
▁Collection 999
▁engagée 999
adapte 999
▁ajoutée 999
EMENT 999
▁observé 999
ld 999
AND 999
▁It 999
▁fibre 999
▁rouler 999
▁cumul 999
▁tabac 999
gl 999
▁contraste 999
▁étranger 999
affichage 999
▁plancher 999
▁93 999
▁chanter 999
▁stationnement 999
▁russes 999
▁vagues 999
▁Mary 999
tas 999
lent 999
▁brosse 999
clés 999
▁afficher 999
▁effectuée 999
▁Rapport 999
▁issues 999
▁Amazon 999
Po 999
▁Arm 999
▁acquérir 999
▁musulman 999
▁explorer 999
▁déçu 999
▁religieuses 999
▁trentaine 999
appar 999
duit 999
.” 999
▁Tan 999
hors 999
▁coins 999
▁étroite 999
ouf 999
▁visuelle 999
▁Coup 999
▁Cat 999
issa 999
▁parcs 999
▁évolutions 999
deux 999
▁fermés 999
▁(15 999
▁oct 999
▁éclair 999
▁préférable 999
▁planche 999
▁Fonction 999
▁vieilles 999
▁cahier 999
aimerai 999
çon 999
▁Miss 999
!!!! 999
4. 999
▁Idéal 999
▁colloque 999
▁laine 999
▁respectivement 999
..." 999
dir 999
▁manga 999
TV 999
tron 999
cier 999
▁Ste 999
▁cinquante 999
▁Business 999
▁Didier 999
▁valider 999
▁tracé 999
▁adversaires 999
voi 999
▁intelligent 999
▁posture 999
▁canne 999
▁trouvera 999
anche 999
ika 999
▁espérons 999
▁introduit 999
▁GPS 999
ago 999
▁Portugal 999
▁chouette 999
cap 999
dite 999
▁syndicat 999
roll 999
▁crimes 999
▁interdite 999
ks 999
▁fibres 999
Pa 999
gor 999
ules 999
gramme 999
▁écart 999
▁laver 999
▁camion 999
▁bourse 999
▁équivalent 999
▁cu 999
▁remplie 999
▁Congo 999
Ha 999
▁Fils 999
▁carrelage 999
▁émet 999
▁croisière 999
▁plonger 999
▁incapable 999
Asie 999
▁violent 999
▁sauvages 999
lien 999
▁technologiques 999
▁élégante 999
▁fondamentaux 999
▁paisible 999
▁répétition 999
obtention 999
▁Cannes 999
contre 999
▁durer 999
alis 999
▁indispensables 999
▁wc 999
▁recherché 999
femme 999
▁identique 999
chez 999
uve 999
▁Roger 999
▁essence 999
▁récompense 999
▁infrastructures 999
▁Roy 999
▁démontrer 999
▁installée 999
merci 999
▁disques 999
blo 999
phe 999
▁traditionnelles 999
▁téléphonique 999
▁mécanismes 999
oz 999
▁Ten 999
Office 999
/7 999
MP 999
▁devriez 999
▁Bourgogne 999
▁CV 999
▁saveurs 999
▁régulier 999
▁Ligne 999
▁Village 999
▁eff 999
iter 999
▁mentionné 999
▁Renault 999
▁perles 999
▁mn 999
▁ludique 999
▁61 999
▁créateurs 999
▁spéciales 999
▁mythique 999
▁poursuite 999
ssante 999
dic 999
hôtes 999
▁Tourisme 999
▁négatif 999
▁Mass 999
▁musiques 999
▁attribué 999
▁prévus 999
▁Jeune 999
▁touchant 999
aël 999
▁extension 999
▁Sav 999
▁ménages 999
unique 999
▁Bibliothèque 999
▁Actuellement 999
▁extraits 999
▁rétablir 999
▁paragraphe 999
rio 999
▁serveurs 999
▁délicate 999
uit 999
▁(10 999
posé 999
▁nocturne 999
▁Justice 999
▁locations 999
Ivoire 999
▁décédé 999
▁animée 999
▁fonctionnaires 999
▁facilite 999
▁Win 999
▁parait 999
▁chaine 999
▁universités 999
▁empêche 999
▁seniors 999
▁Contact 999
well 999
tir 999
École 999
▁récentes 999
▁Hier 999
▁diminution 999
▁Gay 999
▁1978 999
▁Dia 999
ades 999
ding 999
▁métallique 999
▁pension 999
▁pou 999
▁fonctionnel 999
▁espérer 999
TC 999
uré 999
installe 999
▁dégustation 999
▁Spa 999
300 999
▁digital 999
▁Park 999
ulé 999
▁Conditions 999
▁team 999
cadre 999
▁offerts 999
▁provient 999
▁souligner 999
▁concurrents 999
▁administratives 999
▁Orange 999
▁réveil 999
▁retrouvez 999
▁Champ 999
▁congé 999
▁accro 999
▁Pyrénées 999
▁phrases 999
mie 999
▁conservé 999
osa 999
▁terrorisme 999
▁adjoint 999
▁pleins 999
▁professionnalis 999
ances 999
▁évite 999
▁demandant 999
▁ondes 999
▁tomates 999
▁odeur 999
dal 999
▁ouvriers 999
▁posée 999
▁divine 999
▁cris 999
cteur 999
▁définit 999
vor 999
écouter 999
▁apparu 999
time 999
▁connaissait 999
▁devenus 999
sus 999
▁bah 999
▁écrans 999
cad 999
lire 999
▁régionaux 999
pri 999
▁espère 999
▁Disney 999
CS 999
▁CL 999
▁statue 999
▁fournis 999
▁blague 999
LES 999
international 999
osité 999
▁Style 999
imposer 999
▁provenance 999
▁inconnue 999
▁;-) 999
▁tensions 999
▁fuir 999
▁segment 999
▁porn 999
▁âgés 999
▁varie 999
▁rassemblement 999
▁ber 999
▁créant 999
▁revers 999
▁médicaux 999
▁pénal 999
▁participent 999
gnant 999
▁110 999
▁val 999
▁travaillant 999
▁dépression 999
▁nomme 999
▁mince 999
▁partant 999
GO 999
▁verrez 999
▁cite 999
▁sanitaires 999
▁Ap 999
gère 999
▁1960 999
rn 999
écrit 999
ande 999
▁clichés 999
▁banlieue 999
▁Deco 999
▁visibles 999
▁deviendra 999
▁rôles 999
▁relatifs 999
graphe 999
adolescence 999
▁Tribunal 999
▁honneur 999
fon 999
▁2.0 999
▁Ray 999
▁techniciens 999
▁aisément 999
▁mineurs 999
▁blogs 999
▁pri 999
▁intervenants 999
atifs 999
extension 999
▁Mort 999
▁Rem 999
▁métropole 999
▁servant 999
▁revêtement 999
▁favorise 999
^^ 999
▁gagnant 999
▁référencement 999
▁Produits 999
oeuf 999
hor 999
▁devais 999
▁échéant 999
lière 999
MS 999
▁BR 999
pel 999
▁Gabriel 999
▁fri 999
▁Anna 999
▁cla 999
ava 999
▁parlait 999
ondes 999
▁Dj 999
▁Sor 999
attache 999
▁technicien 999
▁Bah 999
▁reportage 999
▁débuter 999
▁Vietnam 999
▁morte 999
Qu 999
▁canon 999
wood 999
cité 999
▁espérant 999
▁clo 999
▁immédiat 999
▁complexité 999
trop 999
▁parvient 999
▁contribué 999
instruction 999
▁gouvernance 999
▁majeurs 999
iti 999
▁interprété 999
trans 999
▁App 999
▁réfrigérateur 999
▁réservoir 999
▁intégrée 999
▁bénéficient 999
▁Emploi 999
▁Qualité 999
▁essaie 999
▁appui 999
play 999
index 999
tat 999
▁considération 999
▁Ac 999
▁And 999
▁originaux 999
▁blond 999
él 999
▁Seule 999
nic 999
▁ranger 999
▁actuelles 999
▁évolue 999
▁entrepreneurs 999
▁tar 999
grand 999
▁partagent 999
▁constitutionnel 999
▁représentations 999
ort 999
▁Power 999
cade 999
▁basket 999
▁voudrait 999
▁réserves 999
▁doré 999
▁Game 999
▁foie 999
▁souhaitons 999
▁fiscal 999
aff 999
aliser 999
▁crayon 999
nge 999
2013 999
▁fraîche 999
▁Cri 999
▁verser 999
▁cho 999
dar 999
▁manteau 999
ye 999
▁jette 999
▁Bourg 999
▁Yves 999
ception 999
▁tenues 999
▁Harry 999
mination 999
ède 999
▁neuro 999
ode 999
▁emb 999
▁cristal 999
▁instructions 999
▁EUR 999
▁densité 999
▁déteste 999
lois 999
orm 999
▁copine 999
▁baisser 999
▁AR 999
▁Os 999
Atlantique 999
▁délicieuse 999
▁conversion 999
▁Sen 999
row 999
éga 999
isées 999
▁Mariage 999
exclusion 999
▁anal 999
orange 999
idi 999
quel 999
▁neuve 999
▁Pre 999
▁1991 999
atte 999
▁West 999
▁équipés 999
▁tro 999
▁inspiration 999
▁absolue 999
bot 999
▁notification 999
3, 999
▁Ensemble 999
▁wa 999
▁sache 999
cast 999
▁Adam 999
▁attentif 999
II 999
sauf 999
▁88 999
▁consacre 999
▁hall 999
▁hebdomadaire 999
assa 999
bles 999
▁dessiner 999
▁divorce 999
optimisation 999
▁anime 999
bois 999
Des 999
▁pla 999
▁regarda 999
▁soumise 999
▁Eco 999
gues 999
▁cherché 999
▁sain 999
▁fus 999
▁exige 999
DF 999
▁entré 999
▁noble 999
▁coffret 999
▁domination 999
▁Kat 999
▁Instagram 999
▁proviennent 999
▁collègue 999
▁Bible 999
▁exploit 999
tho 999
igné 999
▁vintage 999
nch 999
▁Sébastien 999
▁transparent 999
▁lâcher 999
▁Crédit 999
▁bail 999
▁rendus 999
▁2020 999
ds 999
▁peintures 999
▁évaluer 999
▁américaines 999
▁Vienne 999
▁situés 999
chat 999
oral 999
▁regards 999
▁remplace 999
▁pneus 999
rois 999
▁Collège 999
▁Bad 999
▁détermination 999
▁1989 999
tch 999
▁Bill 999
▁paie 999
ivité 999
▁désire 999
PP 999
▁Déc 999
▁Action 999
▁tarte 999
▁xD 999
▁bouteilles 999
▁ko 999
▁ref 999
▁particulières 999
tex 999
[/ 999
▁illustrations 999
▁documentation 999
▁Cré 999
EX 999
▁ciblé 999
▁Fille 999
▁UV 999
ISS 999
▁musulmane 999
▁Commune 999
▁essentiels 999
▁puissants 999
▁Météo 999
▁réplique 999
▁offrons 999
▁taxi 999
▁négociation 999
▁théorique 999
▁arguments 999
▁confie 999
▁engagés 999
▁raté 999
▁corde 999
▁surprenant 999
▁gé 999
interface 999
▁contiennent 999
▁flèche 999
field 999
wan 999
▁pénale 999
ére 999
dant 999
oï 999
▁suspendu 999
▁destinées 999
▁assistance 999
▁bâton 999
▁hydro 999
▁enlevé 999
▁canadien 999
rk 999
▁SO 999
agglomération 999
▁messagerie 999
▁malheur 999
▁fesses 999
▁grandeur 999
▁fragile 999
▁Laissez 999
▁paroisse 999
▁ap 999
▁aérien 999
▁initial 999
pers 999
▁CON 999
▁diabète 999
▁dotée 999
agé 999
▁Nor 999
-20 999
▁démission 999
▁mettons 999
andre 999
-17 999
amuse 999
▁vendus 999
iga 999
▁Professeur 999
▁résistant 999
bac 999
bb 999
board 999
▁impliqué 999
aliste 999
▁tribu 999
▁muni 999
▁poils 999
▁rapprocher 999
ctor 999
▁débarrasser 999
▁attaqué 999
▁créatures 999
Claude 999
▁attiré 999
▁originaire 999
mond 999
▁conscient 999
▁médi 999
accepter 999
▁averti 999
▁éthique 999
▁discrimination 999
▁démarrage 999
▁GT 999
aucune 999
▁déplace 999
VA 999
grav 999
poli 999
outils 999
uck 999
géné 999
EI 999
ota 999
▁diminue 999
▁assisté 999
pend 999
▁applique 999
▁(8 999
▁veiller 999
▁master 999
▁défauts 999
DD 999
▁circonscription 999
idéal 999
▁solitude 999
▁clos 999
▁officiels 999
▁hé 999
▁lyon 999
rab 999
▁nouveauté 999
▁dépit 999
abi 999
DC 999
▁Vacances 999
▁chaleureuse 999
eff 999
▁Revue 999
▁vé 999
oxy 999
▁chèque 999
▁varier 999
▁échapper 999
▁350 999
▁Sim 999
-11 999
▁prétexte 999
▁avancées 999
anniversaire 999
▁perdue 999
CM 999
rance 999
élite 999
▁Franc 999
win 999
▁intermédiaire 999
▁humour 999
insertion 999
change 999
Dans 999
▁ailes 999
▁Jou 999
Elle 999
▁taxes 999
▁Nuit 999
▁Sports 999
EZ 999
▁réunit 999
▁Multi 999
▁cimetière 999
▁libertés 999
▁consulté 999
identification 999
▁synthétique 999
▁NO 999
étape 999
▁CP 999
▁animation 999
▁amélioration 999
▁démarrer 999
shop 999
▁signée 999
▁survivre 999
▁originales 999
▁transmet 999
▁polémique 999
▁certitude 999
▁gi 999
▁délicat 999
▁Jeanne 999
phé 999
▁costume 999
▁concret 999
▁problématiques 999
2016 999
") 999
▁chimique 999
AA 999
▁généreux 999
▁soumettre 999
▁superbes 999
▁Camp 999
▁nomination 999
Christ 999
éma 999
▁projection 999
▁chalet 999
▁Acc 999
▁Cours 999
▁sphère 999
▁aval 999
▁hectares 999
▁single 999
▁Combien 999
▁lourds 999
ennui 999
▁monstre 999
▁courants 999
▁chrétien 999
▁contraint 999
▁flot 999
▁connues 999
▁fédération 999
▁humanitaire 999
vente 999
▁consacrer 999
▁approprié 999
▁Chaise 999
FC 999
▁chaussure 999
▁renvoie 999
▁start 999
▁HP 999
▁portion 999
▁1,5 999
▁vierge 999
▁yoga 999
▁pervers 999
Se 999
▁forums 999
épi 999
iva 999
▁attire 999
▁vivants 999
▁indiquant 999
ao 999
lib 999
▁provisoire 999
uelle 999
▁levée 999
▁glisse 999
▁Tur 999
éco 999
écologie 999
▁hu 999
▁pp 999
opérateur 999
▁franchi 999
▁bra 999
▁représenté 999
▁église 999
▁Mission 999
awa 999
▁ajout 999
▁étais 999
▁Versailles 999
▁panique 999
▁robots 999
▁horaire 999
▁habitant 999
écri 999
▁proportion 999
▁réalisations 999
▁cassé 999
▁bague 999
▁firme 999
▁RO 999
dique 999
▁1995 999
▁débuté 999
▁partielle 999
systématiquement 999
▁Leurs 999
▁concernées 999
▁rive 999
▁gère 999
▁demandez 999
ms 999
▁chercheur 999
No 999
assainissement 999
▁invitons 999
▁Bol 999
▁prévenu 999
▁témoigne 999
▁élaboré 999
uter 999
▁AS 999
acier 999
tou 999
▁contrainte 999
▁intéressants 999
▁romain 999
▁modules 999
red 999
▁Championnat 999
▁débuts 999
▁Bour 999
▁gar 999
▁confusion 999
▁Dra 999
HA 999
▁volontaires 999
hab 999
▁CS 999
▁menaces 999
▁Hol 999
▁exemplaire 999
▁déterminée 999
phi 999
▁(0) 999
▁(16 999
▁adorable 999
▁individuelles 999
▁œil 999
▁donnait 999
eille 999
matique 999
2012 999
▁Pra 999
▁portait 999
▁typique 999
▁genoux 999
▁juges 999
▁2005, 999
▁adolescent 999
instar 999
▁contes 999
iane 999
▁rapporté 999
▁véritables 999
▁Canal 999
▁Ayant 999
▁bords 999
▁Seulement 999
▁albums 999
▁this 999
▁volets 999
▁guerres 999
▁commerçants 999
▁Thé 999
venu 999
▁weekend 999
▁partiel 999
▁recrute 999
▁spécialité 999
fic 999
▁nette 999
▁Asie 999
▁Play 999
▁Sens 999
▁pull 999
▁mètre 999
▁Test 999
▁réglage 999
▁abordable 999
▁bénéfique 999
▁vétérinaire 999
▁dentelle 999
▁préférés 999
▁volontaire 999
introduction 999
Denis 999
▁imposer 999
▁2010. 999
▁protégé 999
égal 999
▁subit 999
▁cessé 999
vage 999
gas 999
▁sauvé 999
▁Catégorie 999
▁ira 999
▁tantôt 999
▁Ang 999
ANCE 999
▁// 999
gée 999
▁%) 999
umi 999
▁diffusée 999
▁couloir 999
▁podium 999
▁topic 999
▁juive 999
▁choisie 999
▁ferai 999
att 999
sport 999
▁substance 999
▁Résultat 999
tiers 999
▁AU 999
▁71 999
▁cohérence 999
▁82 999
▁Pôle 999
▁Machine 999
▁short 999
▁91 999
▁Ok 999
▁impose 999
▁tete 999
▁publicitaire 999
▁suprême 999
▁plateformes 999
▁distinguer 999
naires 999
cale 999
▁extérieurs 999
émo 999
▁célèbres 999
▁détendre 999
▁défilé 999
▁géo 999
▁Plat 999
▁lumières 999
▁casser 999
▁libertine 999
▁Micro 999
emment 999
TO 999
▁Septembre 999
terre 999
▁localisation 999
▁lança 999
▁boisson 999
identifier 999
▁magnétique 999
▁miracle 999
pic 999
▁massacre 999
▁oublie 999
▁mettez 999
▁environnemental 999
énon 999
kan 999
phy 999
▁avancé 999
▁provoqué 999
▁prêtre 999
▁tromper 999
▁moule 999
acide 999
▁AM 999
▁plaire 999
dage 999
▁fêter 999
articles 999
▁gîte 999
▁réflexions 999
▁imprimer 999
▁installés 999
▁Rio 999
▁vitre 999
issi 999
▁Peinture 999
ligne 999
▁figures 999
élevage 999
ENS 999
▁saga 999
▁Hors 999
ibilité 999
▁amusant 999
appuyant 999
▁cathédrale 999
▁caractérise 999
▁montrant 999
▁parisien 999
avions 999
ova 999
▁Roche 999
▁traversée 999
▁surveiller 999
▁maux 999
▁particularité 999
▁variations 999
▁publiés 999
oko 999
▁voulant 999
▁Tro 999
▁tempête 999
▁Tim 999
▁enregistre 999
▁gouvernements 999
bol 999
Iran 999
▁?) 999
▁battu 999
▁déroulement 999
▁74 999
▁bracelet 999
▁copain 999
▁Jérusalem 999
▁Pologne 999
octobre 999
▁vain 999
▁opportunités 999
▁réussit 999
▁pochette 999
▁rem 999
▁express 999
▁levier 999
▁Ky 999
▁2011. 999
▁associées 999
▁att 999
▁Real 999
▁prenait 999
▁aveugle 999
▁faiblesse 999
iche 999
occupation 999
IO 999
▁admirer 999
▁94 999
▁séminaire 999
▁pince 999
habitants 999
AE 999
irent 999
▁sondage 999
expédition 999
inquiète 999
▁Rec 999
▁couverte 999
▁Frank 999
▁alcool 999
▁relief 999
vu 999
▁Saison 999
▁occuper 999
lez 999
Empire 999
▁circuits 999
▁privilégié 999
▁roche 999
important 999
▁sérieuses 999
▁entrées 999
aaa 999
ticien 999
métrique 999
▁réf 999
▁incendie 999
▁Bl 999
écu 999
IB 999
▁exprimé 999
▁Fre 999
œ 999
▁blessure 999
▁philosophique 999
▁Moscou 999
▁respiration 999
▁radi 999
▁Ant 999
▁territoriale 999
aw 999
▁Moulin 999
▁gêne 999
EE 999
pent 999
▁francais 999
zar 999
zé 999
▁roses 999
▁intéressantes 999
▁espagnole 999
▁collectivité 999
▁Benjamin 999
▁Choisissez 999
▁synonyme 999
▁Quatre 999
▁bouquet 999
▁étages 999
▁Laval 999
▁sentait 999
▁20% 999
▁restée 999
orgue 999
▁géré 999
▁démo 999
garde 999
viens 999
▁disais 999
▁musées 999
▁conclusions 999
▁dignité 999
▁barbecue 999
▁ban 999
▁Continuer 999
▁civils 999
icité 999
▁substances 999
objets 999
git 999
espèce 999
assé 999
▁royal 999
Ou 999
▁125 999
apprécie 999
▁particules 999
▁fraude 999
▁MI 999
▁grotte 999
▁avancée 999
▁Out 999
▁Ouest 999
▁RP 999
▁juridiction 999
gou 999
▁tablettes 999
▁Ana 999
▁résidents 999
▁Galaxy 999
▁Street 999
Pas 999
▁!). 999
chan 999
▁requis 999
▁Idées 999
▁absent 999
▁bronze 999
immeuble 999
mos 999
▁rideau 999
aro 999
▁communications 999
▁éliminer 999
▁quinzaine 999
▁simulation 999
vois 999
▁solides 999
▁violation 999
▁fierté 999
▁tubes 999
dam 999
▁imaginaire 999
▁routier 999
▁dispo 999
▁Pol 999
NI 999
▁conquête 999
▁analyser 999
▁têtes 999
éna 999
▁Para 999
▁Ken 999
▁Julie 999
▁Mondial 999
▁futures 999
▁électorale 999
-7 999
▁placée 999
▁mensuel 999
▁XXe 999
▁serpent 999
▁Lundi 999
▁récupéré 999
▁dira 999
▁adapter 999
vre 999
▁admis 999
▁jaunes 999
▁clause 999
▁mettra 999
▁disposez 999
▁effectués 999
▁gou 999
str 999
▁digitale 999
égo 999
▁organisées 999
AIRE 999
clé 999
▁grade 999
▁puce 999
Tu 999
▁arrivant 999
▁préoccupations 999
▁moyennes 999
▁Fait 999
▁Archives 999
▁concerné 999
▁déploiement 999
▁Jeudi 999
▁prenne 999
▁variées 999
internet 999
▁inspirée 999
appeler 999
▁axes 999
▁faune 999
▁sexualité 999
▁personnalisée 999
accompagner 999
stat 999
▁solitaire 999
▁promesses 999
▁accompagnés 999
▁Coucou 999
▁résume 999
▁pleurer 999
chée 999
IER 999
▁jeté 999
chette 999
▁marre 999
▁2000, 999
▁méditation 999
▁nuages 999
▁your 999
▁arriva 999
▁cl 999
▁paye 999
▁AD 999
▁légale 999
▁spécialités 999
avi 999
abilis 999
anime 999
▁annoncer 999
▁antique 999
▁Up 999
2015 999
▁PAR 999
▁carrés 999
▁époux 999
▁autorité 999
▁accessoire 999
▁tou 999
▁soudain 999
▁verbe 999
imagination 999
▁dispens 999
▁censé 999
rise 999
▁Pop 999
▁céramique 999
▁envisage 999
▁Domaine 999
▁notice 999
▁Dernière 999
avril 999
thèque 999
▁prostituées 999
titude 999
▁aborder 999
▁confier 999
▁blé 999
▁essaye 999
▁rassemble 999
▁accordée 999
▁Entreprise 999
▁play 999
▁surf 999
▁orale 999
lettes 999
quée 999
▁encourage 999
▁amener 999
AFP 999
▁Gal 999
▁Gre 999
▁listes 999
Mon 999
▁intéressés 999
▁notaire 999
▁valorisation 999
▁agriculteurs 999
▁camarades 999
▁Montre 999
▁abri 999
▁emprunt 999
essaie 999
▁partiellement 999
UMP 999
riste 999
▁POUR 999
bré 999
▁ambition 999
FI 999
▁Famille 999
▁Ay 999
▁reproche 999
▁monétaire 999
char 999
vic 999
▁maritime 999
▁dérange 999
▁forcé 999
▁fo 999
▁permettrait 999
type 999
▁boss 999
écrivain 999
issons 999
▁bourg 999
▁CHA 999
▁Mardi 999
▁job 999
Ba 999
▁municipalité 999
▁prétend 999
▁marchand 999
/24 999
▁Sony 999
liers 999
bonne 999
▁misère 999
▁jet 999
▁Piscine 999
▁générer 999
▁Docteur 999
▁demanda 999
▁are 999
inte 999
▁publicitaires 999
commerce 999
lain 999
égu 999
asile 999
sent 999
▁Mouvement 999
▁échec 999
▁combler 999
▁collectifs 999
▁disciplines 999
▁alliés 999
Tout 999
ître 999
▁Angeles 999
▁ti 999
/1 999
▁prouve 999
▁littéralement 999
oth 999
fou 999
▁peindre 999
▁Rom 999
▁séparer 999
▁clin 999
PT 999
▁systématique 999
nia 999
▁Bor 999
▁offerte 999
tête 999
▁Group 999
▁comptable 999
▁nues 999
▁Juillet 999
▁Monaco 999
lui 999
▁notions 999
▁Court 999
▁pres 999
▁oeil 999
▁sentiers 999
▁Bus 999
▁Dor 999
▁musicien 999
BC 999
▁game 999
▁consentement 999
▁remercions 999
▁dévoilé 999
▁(12 999
CN 999
▁band 999
▁refait 999
actif 999
▁Total 999
▁900 999
orge 999
▁messe 999
▁PR 999
mort 999
issé 999
ambassadeur 999
▁cousin 999
▁savant 999
▁gla 999
▁housse 999
▁pdf 999
suite 999
rc 999
▁Isabelle 999
dict 999
aimé 999
▁raf 999
▁Lune 999
▁robuste 999
▁oeufs 999
ué 999
▁pipe 999
ship 999
▁Bourse 999
eck 999
▁existant 999
dio 999
▁marié 999
▁\ 999
▁camps 999
▁Day 999
▁Benoît 999
var 999
▁bloqué 999
▁modeste 999
▁avouer 999
chemin 999
▁aérienne 999
ampleur 999
▁rapidité 999
▁Matt 999
lev 999
▁secrète 999
▁grasse 999
sif 999
▁fines 999
▁exister 999
▁rural 999
attendais 999
aimer 999
▁appelés 999
/5 999
▁Francis 999
▁soigneusement 999
▁Tal 999
▁reproduire 999
▁connaissais 999
▁parcouru 999
burg 999
▁régulation 999
▁milliard 999
▁exp 999
00.000 999
▁hébergement 999
▁commandant 999
▁fonctionnalité 999
▁réels 999
▁imm 999
▁communiste 999
▁savon 999
Islam 999
▁déterminant 999
gir 999
▁réussie 999
▁larges 999
▁organisateurs 999
sses 999
▁garanti 999
press 999
▁sentier 999
▁exacte 999
▁routine 999
niers 999
▁fréquent 999
▁étendue 999
rum 999
▁fouet 999
▁Office 999
termin 999
épaisseur 999
chage 999
vue 999
▁chargés 999
▁Hor 999
▁Soyez 999
▁modernité 999
▁crochet 999
cycl 999
▁Jules 999
cide 999
face 999
TR 999
▁désolé 999
vas 999
▁béni 999
sseur 999
▁suce 999
▁Romain 999
▁sanctions 999
▁ralenti 999
▁massive 999
"... 999
▁claque 999
lég 999
▁poubelle 999
▁tv 999
▁désirs 999
▁organes 999
▁gravité 999
imé 999
▁plaine 999
▁résolu 999
▁cachée 999
▁côtes 999
▁réveiller 999
▁leçon 999
▁qualifiés 999
▁posséder 999
▁fiabilité 999
▁Niveau 999
▁nuances 999
▁souplesse 999
▁semelle 999
▁lots 999
▁Hello 999
▁jouant 999
▁phare 999
▁DJ 999
intensité 999
▁mac 999
▁guides 999
▁cultivé 999
▁étoile 999
▁PE 999
▁académique 999
▁sensibilisation 999
▁Pensez 999
▁sainte 999
▁exclusive 999
NC 999
▁transporter 999
▁adoptée 999
QUE 999
▁(9 999
▁Feu 999
▁réformes 999
▁développée 999
▁passez 999
▁vitamine 999
risation 999
▁Avril 999
▁phénomènes 999
▁opinion 999
▁XVI 999
onné 999
▁terroir 999
▁intelligente 999
Dame 999
hl 999
▁actrice 999
▁atmosphère 999
oublier 999
▁pleur 999
▁locataire 999
Opéra 999
▁grecque 999
▁rapproche 999
▁croissant 999
)... 999
▁applicables 999
▁triple 999
▁universitaires 999
▁prisonniers 999
Air 999
érant 999
▁bébés 999
▁Land 999
▁Avez 999
▁purement 999
div 999
▁mâle 999
intestin 999
▁lavage 999
uma 999
▁Cameroun 999
▁FF 999
trices 999
bis 999
▁rédigé 999
émie 999
enfer 999
▁tit 999
▁repartir 999
charge 999
▁Fred 999
enseignant 999
ingénieur 999
▁engage 999
▁carrément 999
Américain 999
extrait 999
▁Fra 999
rement 999
▁inventé 999
▁dévoiler 999
▁83 999
▁discrète 999
▁performant 999
▁décharge 999
▁passionnant 999
▁partition 999
▁quarante 999
▁poupée 999
▁vir 999
très 999
Marne 999
Ho 999
▁litige 999
▁fraîcheur 999
llier 999
▁opérationnel 999
▁fran 999
▁Sky 999
▁Produit 999
bla 999
▁explication 999
▁NE 999
▁Rouen 999
tig 999
▁finesse 999
▁Avoir 999
▁souterrain 999
▁pizza 999
▁Sacs 999
▁éditeur 999
▁Kim 999
▁BO 999
ister 999
▁commandement 999
▁sortent 999
EG 999
▁murale 999
▁DI 999
▁hop 999
▁rituel 999
cs 999
ager 999
▁interprète 999
dition 999
▁répondit 999
▁Fleur 999
▁trésor 999
▁débutant 999
▁séjours 999
▁casserole 999
▁poker 999
▁chauffer 999
▁CAP 999
▁vs 999
▁intentions 999
phile 999
▁Californie 999
▁fatigué 999
architecte 999
élément 999
▁Juifs 999
▁diable 999
▁Dos 999
TES 999
isateur 999
▁supporte 999
▁bordure 999
rick 999
▁menées 999
▁décors 999
▁verticale 999
▁baptême 999
▁rassemblé 999
▁Res 999
▁guise 999
▁bancaires 999
▁fontaine 999
puis 999
▁creux 999
-15 999
▁bouchon 999
déc 999
▁ongles 999
nus 999
▁établie 999
▁Dés 999
▁Zo 999
▁vaisselle 999
tos 999
▁?! 999
▁remporter 999
▁Titre 999
▁faisais 999
âtre 999
▁peaux 999
rieur 999
▁atouts 999
▁repli 999
▁étonné 999
▁Octobre 999
▁Mobile 999
▁fous 999
écrase 999
▁marie 999
▁leçons 999
▁marocain 999
▁rotation 999
▁Gall 999
▁remporte 999
▁mangé 999
▁territoriales 999
▁récents 999
ifiée 999
▁péché 999
▁envoyée 999
▁Ajoutez 999
nac 999
▁compact 999
▁terroristes 999
▁jambe 999
▁optimiser 999
▁justifie 999
▁dépendant 999
nan 999
Hôtel 999
▁Personnellement 999
utilité 999
▁fac 999
▁récits 999
▁absolu 999
▁IM 999
▁renseignement 999
mag 999
▁Cherche 999
▁passif 999
▁hotel 999
▁maîtresse 999
▁Marché 999
▁placard 999
▁attendue 999
▁Fond 999
▁Lan 999
▁vedette 999
▁grain 999
mée 999
▁doc 999
ém 999
occup 999
▁célébrer 999
ward 999
chen 999
▁souhaitant 999
para 999
▁phases 999
épaule 999
▁Hugo 999
▁Mod 999
▁détaillée 999
▁démontré 999
▁cro 999
▁envisager 999
▁soutenue 999
▁OS 999
▁démarre 999
▁porc 999
accompagne 999
▁renforce 999
▁bombe 999
▁parlementaire 999
oublie 999
ivre 999
▁africains 999
▁suivez 999
nation 999
▁sal 999
▁Midi 999
▁avenue 999
▁pouce 999
▁Direct 999
péri 999
étique 999
▁radical 999
▁79 999
tina 999
▁familiales 999
évènement 999
FA 999
▁GMT 999
▁Référence 999
▁genres 999
▁ados 999
▁voyons 999
auraient 999
▁institution 999
mul 999
▁téléphones 999
▁exécuté 999
▁exigeant 999
▁poule 999
▁Hum 999
▁84 999
▁procure 999
internaute 999
ête 999
▁révolte 999
accepte 999
▁serré 999
▁verres 999
▁saveur 999
▁Hab 999
vy 999
aye 999
▁Xavier 999
œuf 999
▁Pau 999
▁Jamais 999
▁reviens 999
▁Live 999
▁croiser 999
▁soie 999
fait 999
assaut 999
▁pile 999
attraction 999
▁€. 999
▁Nathalie 999
▁contradiction 999
empereur 999
▁capture 999
▁avocats 999
bro 999
▁apportent 999
indique 999
▁africain 999
▁éditeurs 999
▁gamin 999
▁retire 999
▁Ven 999
▁news 999
▁Tam 999
quette 999
5) 999
▁charmante 999
▁fondamentale 999
▁aimant 999
iaux 999
▁Basse 999
▁accidents 999
▁autrefois 999
▁regardez 999
▁vêtement 999
▁2004, 999
▁fédérale 999
▁renovation 999
▁champions 999
▁Mans 999
▁Dragon 999
issez 999
▁méchant 999
▁troupe 999
▁fière 999
ulaire 999
ICE 999
naise 999
▁mystérieux 999
▁spectaculaire 999
▁habituelle 999
▁fusil 999
▁Vue 999
▁porteur 999
▁potentiels 999
▁observations 999
▁PSG 999
ailles 999
PO 999
▁Hel 999
plication 999
▁difficilement 999
▁Livraison 999
▁escalier 999
nelles 999
▁kilos 999
▁individuels 999
▁citation 999
▁éloigné 999
▁Vit 999
▁accueillant 999
▁appliquée 999
▁manquent 999
pprovisionnement 999
▁Marche 999
san 999
▁chante 999
yan 999
adhésion 999
▁pavillon 999
▁applicable 999
▁postale 999
GI 999
▁(4) 999
prise 999
▁Nat 999
▁intelligence 999
▁86 999
pass 999
▁respectant 999
ncer 999
lées 999
▁fixée 999
▁taper 999
▁Milan 999
▁fla 999
▁bijou 999
iya 999
▁encourager 999
effectue 999
▁consécutive 999
▁belgique 999
▁demoiselle 999
▁capteur 999
août 999
▁canaux 999
▁fermée 999
nte 999
DP 999
▁éd 999
▁Of 999
▁enveloppe 999
emballage 999
▁salade 999
▁discrétion 999
▁marquant 999
▁lesbienne 999
éclat 999
indice 999
▁ordinateurs 999
▁allaient 999
ink 999
ory 999
▁ph 999
ua 999
▁standards 999
BE 999
stra 999
▁Media 999
venez 999
investir 999
▁BA 999
▁séquence 999
▁satellite 999
▁Tru 999
vr 999
▁1986 999
▁légèreté 999
ILL 999
▁accroché 999
▁affiché 999
▁Dam 999
▁roule 999
zan 999
cours 999
▁Sex 999
▁Pratique 999
▁dirigée 999
▁compagnons 999
▁raid 999
neur 999
▁alternatives 999
vienne 999
▁Acheter 999
▁rigide 999
▁vinaigre 999
▁Pape 999
mbo 999
▁meurt 999
▁barrage 999
▁Ford 999
▁épaisse 999
în 999
▁AG 999
CL 999
suis 999
▁affection 999
▁audience 999
Go 999
▁préjudice 999
▁probleme 999
▁pari 999
lès 999
▁réelles 999
▁livret 999
▁barbe 999
uté 999
▁prépa 999
▁(14 999
hn 999
▁Nike 999
▁mouche 999
verse 999
▁Mettre 999
▁noyau 999
mment 999
▁administration 999
▁torture 999
▁imagination 999
chose 999
▁?" 999
▁examens 999
▁1/2 999
▁serons 999
▁Image 999
▁procureur 999
▁Fé 999
▁Read 999
▁vitrage 999
▁1984 999
▁questionnaire 999
▁faculté 999
abandon 999
▁jo 999
▁connectés 999
ete 999
▁SMS 999
soci 999
neau 999
▁Télécharger 999
nda 999
LM 999
▁Sk 999
▁dieux 999
▁tunnel 999
LS 999
aba 999
▁fondamental 999
▁SD 999
ound 999
▁transaction 999
▁gouvern 999
▁Gou 999
▁fonctionnelle 999
▁Achat 999
▁concentre 999
▁Mohamed 999
▁propice 999
atives 999
▁disons 999
&# 999
▁bug 999
▁électricité 999
▁Kir 999
▁sobre 999
▁célébration 999
issait 999
▁Syn 999
▁gage 999
▁Vidéos 999
▁assise 999
Hu 999
naient 999
got 999
▁régimes 999
▁Liberté 999
▁Bertrand 999
▁frigo 999
▁inscriptions 999
erre 999
▁rebond 999
wer 999
Azur 999
-16 999
liste 999
▁conçus 999
interdiction 999
▁climatiques 999
aya 999
▁rembourser 999
itz 999
▁marbre 999
▁rangs 999
IDE 999
▁73 999
INS 999
▁dresse 999
▁Od 999
▁amies 999
▁Fau 999
▁Zone 999
iki 999
▁nôtre 999
▁raconté 999
▁** 999
émergence 999
▁dons 999
30. 999
▁habitation 999
ford 999
ennes 999
institution 999
▁migration 999
▁figurant 999
▁quantités 999
▁pigment 999
donc 999
▁œufs 999
▁assurant 999
▁360 999
▁Dark 999
oma 999
▁févr 999
▁effectuées 999
tille 999
Mi 999
ouve 999
▁1950 999
▁préférée 999
évacuation 999
▁soixante 999
▁Janvier 999
▁portraits 999
post 999
▁Brest 999
room 999
écosystème 999
▁bleus 999
cine 999
▁ajoutant 999
▁Perso 999
▁amont 999
étr 999
▁abord 999
▁Double 999
▁comparatif 999
▁fout 999
▁visa 999
animaux 999
▁tristesse 999
▁opus 999
▁Vive 999
▁tag 999
uro 999
ador 999
▁Charlie 999
▁paille 999
▁drapeau 999
▁Inscription 999
élimination 999
▁rentable 999
aussi 999
▁résine 999
▁Connect 999
▁érotique 999
gique 999
artistes 999
AH 999
▁Rep 999
▁store 999
▁blocs 999
▁sélectionnés 999
▁Team 999
rale 999
▁cités 999
▁Manche 999
▁bienfaits 999
▁chimie 999
▁république 999
échanges 999
▁opposé 999
gis 999
▁négative 999
▁fournies 999
pad 999
▁courante 999
▁FA 999
▁fondre 999
▁entretenir 999
▁formats 999
▁préfecture 999
IX 999
▁prophète 999
aube 999
héberge 999
iner 999
▁cascade 999
hel 999
▁ciment 999
▁découpe 999
TP 999
▁that 999
cla 999
▁rassure 999
▁Pot 999
▁chou 999
▁poing 999
▁placés 999
▁tactique 999
▁Souvent 999
Cha 999
▁Gene 999
▁effectue 999
▁AC 999
▁??? 999
duire 999
/01 999
▁réservés 999
mesure 999
▁Frais 999
▁variétés 999
accessibilité 999
▁aléatoire 999
▁persuadé 999
▁doctrine 999
ELLE 999
IGN 999
LO 999
approcha 999
▁sections 999
AIS 999
▁sœurs 999
▁productions 999
▁ration 999
ango 999
▁Clo 999
▁Objectif 999
▁Utilisez 999
▁formules 999
▁déception 999
attitude 999
▁alinéa 999
uge 999
UB 999
▁illustré 999
▁expédition 999
/12/ 999
▁Den 999
max 999
▁pois 999
asp 999
▁alerte 999
▁volontiers 999
▁entraîné 999
onique 999
▁rayonnement 999
▁Café 999
audience 999
1-1 999
▁1988 999
▁précises 999
▁positionnement 999
▁But 999
▁classés 999
▁recon 999
▁musculaire 999
▁soldat 999
▁libéré 999
▁By 999
▁artisanale 999
▁expérimenté 999
Ag 999
nar 999
▁positifs 999
OIS 999
▁transactions 999
ût 999
▁Management 999
▁traduire 999
▁appliqué 999
hygiène 999
Jacques 999
ora 999
pect 999
▁annoncée 999
▁sourit 999
▁prudent 999
firm 999
▁sachez 999
ark 999
▁rassembler 999
gestion 999
▁réglable 999
▁talon 999
▁dominantes 999
▁Message 999
Bretagne 999
ues 999
apparence 999
▁rentré 999
▁batteries 999
▁Clément 999
▁mienne 999
rry 999
▁victoires 999
▁assistant 999
interroge 999
▁francophones 999
▁Parole 999
▁visualiser 999
▁biodiversité 999
▁manuscrit 999
▁ruban 999
▁délit 999
▁reviennent 999
bio 999
▁amant 999
▁bour 999
▁canard 999
▁citoyenne 999
glo 999
▁fantaisie 999
▁ferroviaire 999
▁curieuse 999
▁Cinéma 999
▁Noire 999
▁gérant 999
▁âgée 999
PH 999
éva 999
vrai 999
alisme 999
▁Actualité 999
▁cotisations 999
▁loisir 999
▁trouvée 999
▁God 999
ibi 999
nk 999
▁cordes 999
▁Caroline 999
Marc 999
▁proie 999
▁Union 999
▁tor 999
▁aliment 999
▁tricot 999
hem 999
▁repart 999
rop 999
▁proprement 999
ifère 999
▁représentée 999
▁Françoise 999
asi 999
▁Mercredi 999
▁YouTube 999
▁céréales 999
▁Résumé 999
▁croyez 999
▁madame 999
▁diff 999
▁shopping 999
Ne 999
oct 999
dée 999
▁climatisation 999
As 999
▁exclu 999
▁masculine 999
▁obstacles 999
▁cauchemar 999
erne 999
▁copains 999
▁changent 999
attribution 999
▁intra 999
intéresser 999
▁équitable 999
▁Fiche 999
▁89 999
▁PAS 999
...... 999
▁leaders 999
▁chantiers 999
▁syn 999
▁Patrimoine 999
▁inverse 999
▁figurent 999
▁Commun 999
▁Trou 999
▁monstres 999
▁brillante 999
ajoute 999
▁Ét 999
enc 999
Oise 999
▁Nancy 999
▁soif 999
excellence 999
zen 999
▁religions 999
▁1945 999
▁pavé 999
▁spécifiquement 999
▁animale 999
morph 999
▁externes 999
▁por 999
▁expose 999
▁poignet 999
▁quarantaine 999
▁çà 999
▁spacieuse 999
▁abonnés 999
▁1985 999
▁vertus 999
▁87 999
ider 999
▁Mari 999
oris 999
▁Lieu 999
illet 999
▁minimale 999
▁enseignements 999
▁Via 999
▁Effectivement 999
▁voyance 999
▁Med 999
mut 999
▁smartphones 999
▁clou 999
▁supérieures 999
▁sc 999
▁hydraulique 999
tta 999
sin 999
▁cure 999
▁chapitres 999
▁blocage 999
▁dégradation 999
FM 999
pres 999
▁bibliothèques 999
▁champignons 999
▁assemblée 999
▁Mah 999
pol 999
▁enseignant 999
intrigue 999
▁policier 999
▁Part 999
2011 999
▁flore 999
aît 999
▁Ep 999
▁more 999
▁Léon 999
\' 999
▁plaid 999
▁antérieure 999
▁Obama 999
▁constant 999
▁Nan 999
académie 999
tard 999
▁naître 999
▁pressé 999
▁ISO 999
mobil 999
▁départemental 999
▁suggère 999
▁organisés 999
▁aménagée 999
▁Vent 999
▁métrage 999
▁boîtes 999
▁immobiliers 999
▁protégée 999
Br 999
iant 999
▁québécois 999
iber 999
▁caméras 999
▁Der 999
▁répète 999
▁manœuvre 999
▁Jacob 999
▁Australie 999
nons 999
▁Mot 999
Ac 999
▁répéter 999
▁abordé 999
▁devoirs 999
▁reconnus 999
▁(0 999
▁cloche 999
▁désigner 999
▁Cur 999
product 999
urbanisme 999
▁contrôles 999
▁Liban 999
▁pros 999
▁pâtes 999
▁terr 999
etre 999
pied 999
▁fonctionnent 999
▁ram 999
▁SNCF 999
▁bouquin 999
▁EP 999
tec 999
▁lame 999
▁imprimante 999
▁employeur 999
BO 999
▁prononcer 999
Organisation 999
mètre 999
▁Grosse 999
▁recommandée 999
▁rhum 999
▁indicatif 999
▁Question 999
▁syndrome 999
▁probabilité 999
▁goutte 999
cq 999
▁Fan 999
▁habitué 999
▁Conc 999
▁Chant 999
▁habite 999
To 999
chaussée 999
lande 999
lets 999
▁pèse 999
▁spectateur 999
▁Franck 999
▁piège 999
itation 999
risme 999
▁Gro 999
▁crises 999
exprime 999
▁exception 999
équivalent 999
déjeuner 999
▁républicain 999
▁retiré 999
▁failli 999
▁Six 999
itch 999
▁harmonie 999
▁1500 999
▁aborde 999
▁2001, 999
▁Compagnie 999
▁socle 999
▁Eli 999
mod 999
▁émotionnel 999
life 999
cision 999
Intérieur 999
▁entraîneur 999
▁obligatoirement 999
riv 999
ern 999
▁rassurer 999
▁qualifier 999
▁Jérôme 999
▁respecté 999
▁reçue 999
▁dense 999
▁Wo 999
▁sucré 999
▁produisent 999
▁fausses 999
ett 999
consulté 999
▁ordonné 999
▁online 999
gram 999
▁marins 999
▁frapper 999
gres 999
▁décline 999
lles 999
▁allocation 999
▁ravie 999
▁coussin 999
▁divertissement 999
iam 999
asseoir 999
▁OR 999
rad 999
6) 999
ular 999
ego 999
▁opportunité 999
▁brevet 999
▁exact 999
occurrence 999
▁vocabulaire 999
▁flexible 999
▁Suède 999
▁détection 999
oubli 999
▁impressionnante 999
▁solde 999
▁confortables 999
▁directive 999
écris 999
▁capitalisme 999
ouette 999
▁relevant 999
▁institut 999
▁Bau 999
▁ME 999
omi 999
amande 999
▁démontre 999
▁panoramique 999
▁tampon 999
▁nommée 999
orient 999
▁planches 999
CT 999
▁poème 999
oit 999
NO 999
fl 999
▁sollicité 999
▁Roll 999
gro 999
▁pratiquant 999
▁acceptez 999
▁2,5 999
▁report 999
▁grandement 999
▁valoriser 999
▁excès 999
▁tolérance 999
▁Boy 999
▁convivialité 999
▁laissa 999
▁Caen 999
▁destinations 999
▁1987 999
vée 999
▁3000 999
TER 999
économique 999
acquérir 999
▁cesser 999
informer 999
▁Ancien 999
work 999
▁décorer 999
▁recharge 999
▁limitation 999
Bo 999
▁activer 999
▁Quelque 999
▁psychologue 999
▁buffet 999
▁(11 999
▁matches 999
ates 999
arrange 999
▁Form 999
▁créative 999
▁adressé 999
▁contacté 999
▁FL 999
▁sha 999
Seine 999
entends 999
▁ème 999
▁croise 999
▁mécaniques 999
▁gang 999
▁mensonge 999
▁poussée 999
▁excessive 999
▁impeccable 999
▁complicité 999
enseigne 999
▁dalle 999
▁détention 999
▁script 999
▁ajoutez 999
accueillir 999
▁Hal 999
▁intitulée 999
>< 999
▁Plu 999
▁inox 999
▁déroulera 999
▁bla 999
▁pâtisserie 999
Éducation 999
▁précieuse 999
▁protecteur 999
▁dominant 999
Mer 999
▁AN 999
▁devint 999
▁convivial 999
▁Manger 999
▁enquêtes 999
▁acoustique 999
▁signalé 999
mic 999
▁déclarer 999
imaginer 999
yme 999
mark 999
▁maxi 999
▁delà 999
lab 999
▁Ur 999
Anne 999
▁thérapeutique 999
ym 999
▁Camille 999
gorge 999
▁Images 999
▁pho 999
tures 999
▁comparé 999
▁allemands 999
▁franchir 999
isser 999
sha 999
lk 999
▁éducative 999
▁Champagne 999
▁milf 999
▁aimait 999
▁Mathieu 999
▁Indien 999
formation 999
▁vélos 999
▁gourmande 999
▁instance 999
lure 999
▁Marne 999
rouille 999
amo 999
acc 999
▁Moderne 999
approbation 999
escalade 999
▁Deuxième 999
▁continué 999
igo 999
▁tendresse 999
▁intégration 999
▁brise 999
date 999
▁PVC 999
▁inclut 999
▁SUR 999
rière 999
oin 999
▁Restaurant 999
▁navires 999
▁ouvrant 999
▁marier 999
agi 999
▁sienne 999
Loire 999
▁concertation 999
▁processeur 999
▁hiérarchie 999
▁pilotage 999
▁procède 999
▁prenons 999
▁Raymond 999
▁diffuse 999
▁Informations 999
▁Orient 999
800 999
▁Environnement 999
▁Off 999
▁faille 999
▁retourné 999
anna 999
?) 999
▁distinct 999
▁coupure 999
▁SM 999
etti 999
▁productivité 999
▁restreint 999
extraction 999
▁flou 999
▁ju 999
bet 999
▁Guinée 999
core 999
Ordre 999
▁cliniques 999
▁mineur 999
▁initialement 999
▁coquines 999
▁détriment 999
▁dictionnaire 999
▁innocent 999
▁kWh 999
▁précoce 999
▁tragique 999
▁Plein 999
▁VTT 999
▁municipale 999
▁fosse 999
▁claires 999
▁semestre 999
horreur 999
entrepreneur 999
erra 999
▁bars 999
▁trouvant 999
▁préférez 999
▁remboursé 999
▁splendide 999
▁Clermont 999
▁souvient 999
▁instances 999
▁végétal 999
▁putain 999
▁barrière 999
▁teneur 999
▁sacrée 999
▁Hill 999
▁existants 999
▁Vieux 999
urier 999
▁marocaine 999
▁tranquillité 999
▁Canapé 999
▁régal 999
▁Vierge 999
▁plastiques 999
▁%. 999
▁désagréable 999
▁sixième 999
▁critère 999
▁domestique 999
tha 999
▁constructeurs 999
▁French 999
tées 999
▁Touch 999
étal 999
▁salons 999
600 999
▁dépenser 999
lotte 999
rock 999
LC 999
nit 999
▁vaisseau 999
▁charger 999
▁dépense 999
▁Analyse 999
▁mystérieuse 999
▁chêne 999
▁concession 999
▁Zi 999
▁ange 999
▁épaule 999
tail 999
pou 999
▁robes 999
▁validé 999
tim 999
étonne 999
▁perçu 999
▁évidente 999
▁attentats 999
amine 999
▁porteurs 999
▁Chris 999
bay 999
▁minéraux 999
▁set 999
▁conviction 999
▁globalement 999
ographique 999
▁statuts 999
▁commença 999
▁mines 999
rade 999
▁spatiale 999
▁versement 999
authenticité 999
▁tatouage 999
▁corrigé 999
▁Excellent 999
▁boulevard 999
▁joyeuse 999
tais 999
Is 999
▁Justin 999
nor 999
▁racine 999
mique 999
▁neufs 999
▁passera 999
8) 999
▁big 999
▁physiquement 999
lade 999
▁Will 999
▁Christine 999
aj 999
épargne 999
▁contenter 999
▁ét 999
▁violon 999
blanc 999
raie 999
▁Autrement 999
▁Nintendo 999
HO 999
▁transporteur 999
▁back 999
▁croient 999
▁renouveler 999
▁Américains 999
▁juif 999
▁contr 999
▁Chemin 999
obé 999
▁accomplir 999
▁robinet 999
Val 999
▁manières 999
version 999
tenant 999
▁Carl 999
▁volontairement 999
▁Ecole 999
▁Fri 999
▁exterieur 999
alliance 999
petit 999
donna 999
▁tentatives 999
▁caoutchouc 999
lux 999
▁Dijon 999
ément 999
▁poèmes 999
▁sécurisée 999
▁Alsace 999
▁médaille 999
jet 999
▁brin 999
▁hot 999
▁assurent 999
▁Gri 999
▁Sand 999
▁semblable 999
▁Durée 999
oulou 999
amba 999
compte 999
▁grandi 999
▁coll 999
raux 999
▁remarques 999
"> 999
▁vignoble 999
▁vieillissement 999
▁routière 999
▁prescrit 999
▁profondes 999
▁richesses 999
▁Unique 999
COM 999
▁centrales 999
▁PIB 999
ech 999
▁pratiqué 999
30, 999
autoroute 999
▁30% 999
tiste 999
Enseignement 999
UD 999
▁églises 999
iron 999
▁composant 999
▁inscrite 999
▁effectifs 999
▁filtres 999
▁répartis 999
odie 999
▁ligue 999
imposition 999
▁bloque 999
▁contributions 999
▁minerai 999
▁Madagascar 999
▁hélas 999
▁tranches 999
▁supermarché 999
▁allure 999
kov 999
comp 999
pal 999
Av 999
▁soci 999
graph 999
▁virage 999
▁permettait 999
▁amicale 999
ague 999
▁symboles 999
▁jolis 999
▁planté 999
▁légendaire 999
▁maturité 999
▁dressing 999
▁vanille 999
wn 999
▁retrouvée 999
flu 999
altér 999
▁entretenu 999
habitat 999
▁sanguin 999
immense 999
ENCE 999
▁Concasseur 999
▁trouva 999
▁considérés 999
▁>> 999
▁valoir 999
▁indicateurs 999
eva 999
▁Décoration 999
▁comptent 999
▁Soul 999
7) 999
sept 999
ajout 999
▁distribué 999
FE 999
▁douloureuse 999
ologiques 999
▁ressortir 999
Lo 999
▁trip 999
▁rude 999
▁déposée 999
onner 999
▁Garde 999
2010 999
Garonne 999
▁doutes 999
▁passa 999
▁gigantesque 999
attaquer 999
▁onze 999
▁orientale 999
▁Metz 999
▁contour 999
édit 999
alle 999
▁autorise 999
▁Vallée 999
▁chéri 999
▁passions 999
usure 999
▁sonores 999
▁Parfait 999
▁cuit 999
▁atout 999
▁défenseur 999
▁jai 999
▁Classe 999
▁98 999
▁âmes 999
▁diplomatique 999
▁li 999
▁Dommage 999
▁mensuelle 999
MB 999
▁Ak 999
Em 999
▁gouttes 999
SS 999
▁algérien 999
▁aménagé 999
▁dénoncer 999
▁soldes 999
gnac 999
put 999
coll 999
▁Kh 999
▁ros 999
▁agréé 999
droit 999
▁balles 999
▁interrogé 999
▁Mario 999
▁statistique 999
▁bulletin 999
▁mythe 999
▁Dur 999
gny 999
range 999
▁Posté 999
▁Science 999
▁appli 999
▁vint 999
▁Ball 999
ival 999
▁dynamisme 999
▁pédagogie 999
▁converti 999
▁vou 999
rri 999
meur 999
▁1981 999
▁automne 999
▁repérer 999
cam 999
▁:: 999
lore 999
▁Unies 999
▁juil 999
▁complètes 999
▁soulager 999
▁boules 999
lec 999
maison 999
/2 999
▁colonnes 999
▁disposé 999
▁comte 999
▁PL 999
▁coopérative 999
▁sorcière 999
LI 999
▁personnaliser 999
▁suggestions 999
▁Stuk 999
médi 999
▁(20 999
▁450 999
BS 999
rag 999
▁Lorraine 999
▁sapin 999
éventuel 999
VI 999
▁Valentin 999
▁posa 999
▁introduire 999
ASS 999
▁exposés 999
▁extérieures 999
▁produite 999
▁résultant 999
▁Gon 999
cel 999
▁initié 999
VEN 999
ablement 999
▁Internationale 999
num 999
ussi 999
▁Contre 999
▁ports 999
▁Tokyo 999
▁citations 999
▁périmètre 999
▁bouillon 999
▁Longueur 999
▁gard 999
éno 999
▁demandeurs 999
▁péril 999
▁donna 999
wing 999
tère 999
▁polar 999
guin 999
▁complété 999
▁Institut 999
▁orienté 999
▁FI 999
nder 999
▁psychique 999
sens 999
▁demandait 999
rol 999
▁boucles 999
▁activement 999
Sur 999
▁laboratoires 999
▁composer 999
▁visuels 999
▁index 999
▁Informatique 999
vait 999
ride 999
▁militant 999
▁semblant 999
emprunt 999
▁prêtres 999
ION 999
▁Sarah 999
▁coloration 999
enn 999
▁fautes 999
▁Imp 999
▁renommée 999
▁Costa 999
événements 999
éveil 999
▁turc 999
▁bouleverse 999
▁gains 999
infection 999
▁figurer 999
value 999
Col 999
▁hum 999
▁Sub 999
assi 999
▁Ye 999
oxygène 999
▁recueilli 999
ART 999
▁femelle 999
▁Kam 999
▁ger 999
▁casting 999
▁raciste 999
▁Mos 999
▁assurances 999
▁préfet 999
▁bienveillant 999
inématographique 999
▁reçoivent 999
▁arômes 999
▁PARIS 999
▁malheureux 999
▁1983 999
▁renforcé 999
▁touches 999
▁partenariats 999
plex 999
SM 999
▁év 999
▁Ron 999
▁zo 999
▁délivré 999
▁Média 999
▁concassage 999
ona 999
▁Venise 999
▁81 999
cht 999
▁linguistique 999
▁garni 999
taires 999
▁tenus 999
▁détermine 999
▁Poi 999
▁promotions 999
▁engager 999
ident 999
▁basique 999
ubi 999
Th 999
▁mannequin 999
▁silicone 999
▁White 999
▁constructions 999
▁Seconde 999
▁adresser 999
emplois 999
▁protégés 999
▁pers 999
▁Bull 999
▁relance 999
▁Bern 999
ison 999
▁baguette 999
hypothèse 999
▁macro 999
nome 999
algorithme 999
▁remède 999
▁Pos 999
▁Beach 999
▁ferais 999
cord 999
orn 999
▁radiateur 999
▁baby 999
▁lapin 999
▁Règlement 999
▁sta 999
▁CI 999
▁budgétaire 999
▁identiques 999
▁mag 999
arg 999
▁gestionnaire 999
▁aident 999
▁bottes 999
actrice 999
▁Méd 999
▁générosité 999
▁prestigieux 999
▁sinistre 999
▁coule 999
▁comptait 999
▁champagne 999
élu 999
occupant 999
▁More 999
▁Devant 999
▁Jeunesse 999
▁grandir 999
▁Dal 999
eve 999
▁odeurs 999
▁1940 999
landais 999
▁Laisser 999
▁190 999
▁High 999
▁rugby 999
▁Contrôle 999
▁hospitalier 999
▁recommandons 999
▁Roland 999
lisation 999
▁CGT 999
▁rumeurs 999
▁opérationnelle 999
▁cire 999
▁rabat 999
▁licenciement 999
▁raccourci 999
offres 999
▁Corps 999
grad 999
▁formée 999
▁uniforme 999
iment 999
▁stratégiques 999
▁wi 999
▁métalliques 999
▁Pay 999
iPhone 999
▁aidera 999
▁stupide 999
▁appuyé 999
▁OK 999
MENT 999
▁élastique 999
▁Monte 999
▁posent 999
▁branché 999
ancé 999
▁comble 999
▁créés 999
isez 999
▁idéalement 999
▁Plage 999
▁priorités 999
▁horrible 999
▁disposant 999
▁combattants 999
▁idiot 999
▁XIV 999
▁Rod 999
light 999
▁Eu 999
▁secs 999
lv 999
élec 999
▁Près 999
▁renouvelables 999
▁220 999
▁épargne 999
▁tentent 999
▁attaché 999
▁ret 999
zon 999
▁indice 999
▁propagande 999
▁songe 999
▁Florence 999
▁céder 999
réf 999
▁modifie 999
VILLE 999
▁Reine 999
cr 999
▁Alice 999
▁oreille 999
pit 999
iere 999
mmer 999
▁Entrée 999
Mont 999
rec 999
▁celibataire 999
cée 999
irai 999
▁ingénieur 999
▁sentent 999
▁confère 999
▁RT 999
▁News 999
▁étudie 999
▁Info 999
▁cirque 999
▁réclamation 999
4, 999
▁book 999
▁Mairie 999
esthétique 999
▁intérieurs 999
▁lourdes 999
cieux 999
▁généraliste 999
DM 999
node 999
AX 999
▁Créer 999
alisé 999
▁débutants 999
▁déroulé 999
UI 999
▁cabane 999
alement 999
▁Iran 999
▁96 999
bord 999
▁supérieurs 999
▁asiatiques 999
▁éclat 999
CD 999
▁Année 999
▁compétitions 999
▁compétente 999
· 999
▁ES 999
▁cinquantaine 999
▁comptabilité 999
▁complice 999
▁photographique 999
▁Dol 999
▁répression 999
▁Partie 999
▁ayez 999
Martin 999
▁émotion 999
▁compliquée 999
argile 999
celle 999
key 999
▁montres 999
▁97 999
▁Dessin 999
harmonie 999
▁Mieux 999
élèves 999
▁merveilles 999
▁Liège 999
▁parfums 999
▁bulle 999
rable 999
▁Ir 999
▁quotidiennement 999
▁jouir 999
▁Dev 999
▁herbes 999
érable 999
abonnement 999
▁tribune 999
▁Responsable 999
▁effectif 999
▁BMW 999
▁isolation 999
▁craint 999
▁vérifié 999
▁Savoie 999
▁Joe 999
FS 999
▁évoquer 999
rg 999
▁Moto 999
▁médiation 999
érique 999
▁Es 999
▁libérale 999
▁subtil 999
▁tige 999
AZ 999
étale 999
loy 999
▁Jeunes 999
argument 999
▁Ai 999
▁Angel 999
▁guidée 999
▁fréquenté 999
▁trône 999
▁fréquente 999
▁janv 999
▁soumission 999
▁compl 999
igna 999
▁prétendre 999
▁élection 999
▁irr 999
▁pardon 999
▁personnalisés 999
notamment 999
▁Lor 999
nde 999
▁réglé 999
▁terrestre 999
▁2002, 999
▁votes 999
▁sorcier 999
▁formés 999
▁Désormais 999
feu 999
▁adopte 999
atrices 999
eut 999
▁Edition 999
live 999
▁gouvernementale 999
▁voisine 999
▁interieur 999
▁indien 999
▁Tours 999
oignon 999
aku 999
ega 999
plat 999
bach 999
étudiant 999
escalier 999
▁ambitieux 999
▁deco 999
▁gentillesse 999
oda 999
Ed 999
▁reconstruction 999
▁consid 999
▁lectures 999
read 999
▁sortit 999
▁gouverneur 999
▁contemporains 999
▁foire 999
▁trahi 999
▁Valérie 999
▁pourvu 999
▁pâ 999
alia 999
Cette 999
lection 999
▁variables 999
▁correcte 999
▁Mère 999
▁mobiliser 999
▁rival 999
▁détenu 999
▁estivale 999
▁maïs 999
▁prouvé 999
▁collant 999
cant 999
▁soupir 999
py 999
▁exécution 999
▁Aix 999
▁Pres 999
oco 999
▁détecter 999
▁suscite 999
▁financé 999
▁croyances 999
porte 999
▁marée 999
▁bénéficiez 999
▁lesbiennes 999
▁boîtier 999
-9 999
Ca 999
▁Charlotte 999
itude 999
▁..... 999
▁Gratuite 999
▁sensibiliser 999
▁:-) 999
▁doué 999
▁dorée 999
Ga 999
▁calculer 999
▁House 999
▁bosse 999
▁redoutable 999
▁soviétique 999
▁puits 999
kel 999
▁Tou 999
▁Stade 999
▁RH 999
RM 999
euro 999
▁reve 999
▁2008. 999
▁Light 999
▁stop 999
dj 999
▁courbe 999
▁approuvé 999
▁dynamiques 999
▁excellence 999
▁concurrent 999
▁cocktail 999
Australie 999
présent 999
▁Bonsoir 999
▁timbre 999
▁district 999
Amour 999
roque 999
cell 999
▁communique 999
▁notable 999
▁incarne 999
▁Arthur 999
▁Exp 999
▁randonnées 999
▁comparable 999
ever 999
mettre 999
▁Center 999
▁dangers 999
▁Arch 999
tribu 999
▁broche 999
▁Secrétaire 999
▁pertinence 999
▁végétaux 999
▁uni 999
▁triangle 999
pdf 999
▁cordon 999
▁nuage 999
Man 999
▁80% 999
▁planétaires 999
tag 999
▁Av 999
▁ignore 999
afficher 999
▁adressée 999
▁rev 999
▁Syndicat 999
rob 999
▁crâne 999
▁multimédia 999
▁condamnation 999
▁douter 999
▁factures 999
▁émergent 999
▁Hall 999
▁fabriqués 999
arité 999
▁partisans 999
▁Somme 999
▁qualifiée 999
▁loyer 999
▁resta 999
▁accorder 999
▁2009. 999
explication 999
700 999
accouchement 999
▁réflexe 999
▁caution 999
▁Argent 999
▁écouté 999
▁orientation 999
institut 999
▁décident 999
▁discuté 999
▁tirée 999
▁Production 999
▁passeport 999
▁cur 999
ciel 999
▁ravis 999
▁horreur 999
side 999
haut 999
▁Mir 999
▁parrain 999
▁partent 999
extrémité 999
▁douces 999
▁XD 999
▁Fol 999
èvre 999
iot 999
▁raisonnement 999
▁rois 999
▁chrono 999
évaluer 999
▁deuil 999
hum 999
▁séparé 999
▁fumer 999
▁composés 999
▁iPad 999
arde 999
nels 999
▁color 999
▁habitat 999
actifs 999
▁dames 999
▁créature 999
▁recyclage 999
▁revendique 999
▁analysé 999
▁foyers 999
arn 999
▁chaos 999
▁raccord 999
étang 999
▁bloquer 999
▁couverts 999
▁vienne 999
▁développeurs 999
▁Chap 999
SON 999
▁situent 999
Ile 999
▁nommer 999
mur 999
Du 999
▁plutot 999
▁tiroir 999
taient 999
▁PN 999
▁traversé 999
sal 999
▁sénateur 999
gs 999
boy 999
apprête 999
▁Book 999
▁gentille 999
▁creuse 999
▁indications 999
▁manipuler 999
▁définie 999
▁émotionnelle 999
camp 999
inspection 999
/07/ 999
▁validité 999
▁éducatif 999
allait 999
isolation 999
estomac 999
▁banane 999
▁iOS 999
voque 999
▁nid 999
▁JO 999
▁Texte 999
▁ingénieurs 999
▁adéquate 999
▁Mémoire 999
encore 999
▁latine 999
▁électoral 999
hop 999
▁bricolage 999
▁référendum 999
▁parvenu 999
▁mutation 999
▁Life 999
▁industries 999
▁Sont 999
▁pote 999
pée 999
▁basses 999
▁cession 999
▁partagée 999
▁Demande 999
yne 999
▁sachet 999
ONS 999
▁Eau 999
injustice 999
▁vôtre 999
▁musicales 999
▁abouti 999
▁tendu 999
soit 999
fiction 999
▁dévi 999
▁vitamines 999
▁chargement 999
▁Lab 999
rette 999
▁IT 999
▁Henry 999
▁confi 999
▁nerveux 999
Observatoire 999
▁Football 999
▁comptoir 999
▁trophée 999
champ 999
▁racisme 999
▁assiette 999
▁Sachez 999
▁rouleau 999
iko 999
▁Caisse 999
rve 999
▁innovations 999
thérapie 999
toire 999
RON 999
équation 999
▁catholiques 999
▁généreuse 999
▁redonner 999
▁facettes 999
▁Bell 999
▁CDI 999
▁Maman 999
etta 999
▁170 999
▁Peugeot 999
▁Pâques 999
▁idéologique 999
▁mosquée 999
▁cinéaste 999
▁Réponse 999
▁ramène 999
▁ann 999
▁épaisseur 999
▁hautement 999
▁Ec 999
▁infirmière 999
▁1975 999
▁préalablement 999
nable 999
▁commençait 999
▁Massage 999
▁Gold 999
tol 999
▁reli 999
▁enjeu 999
▁trompé 999
crire 999
▁Az 999
▁nappe 999
lite 999
▁GO 999
▁'' 999
uant 999
▁potentiellement 999
mot 999
▁OU 999
▁stocks 999
vou 999
▁défendu 999
ndi 999
▁groupement 999
iqu 999
▁isolé 999
▁indienne 999
▁Immobilier 999
▁confrontation 999
▁voulaient 999
▁assiste 999
▁composent 999
infos 999
▁expressions 999
rem 999
▁opinions 999
dl 999
IEN 999
▁prie 999
idé 999
labor 999
▁Magnifique 999
▁familier 999
▁portugais 999
▁Bord 999
▁navette 999
orthographe 999
▁tabou 999
▁Lang 999
▁cuisiner 999
▁réveille 999
érez 999
▁admin 999
▁Sept 999
▁talons 999
▁cerise 999
▁2003, 999
▁semblerait 999
▁manquait 999
adulte 999
▁attendait 999
▁pénétrer 999
zie 999
▁Gard 999
▁innovantes 999
éch 999
▁Conformément 999
▁silencieux 999
▁Hot 999
▁enceintes 999
▁élevées 999
▁immeubles 999
paris 999
▁maintenu 999
right 999
▁fig 999
▁bebe 999
nières 999
igner 999
▁littéraires 999
▁DC 999
▁Dix 999
▁longuement 999
▁deja 999
dale 999
HE 999
▁ponctu 999
▁intensif 999
▁HA 999
▁calcaire 999
▁couché 999
▁Toi 999
▁Louise 999
▁Gran 999
▁prestataires 999
▁légers 999
▁Hôtels 999
▁Allah 999
chard 999
▁emporter 999
▁amoureuses 999
▁sessions 999
sic 999
▁bruits 999
house 999
économiste 999
▁restaurer 999
▁pétition 999
▁compagne 999
èque 999
Education 999
▁dégager 999
riel 999
▁lingerie 999
gate 999
échapper 999
▁majoritairement 999
zu 999
ming 999
▁croissante 999
▁exerce 999
▁levé 999
▁médicales 999
▁enthousiasme 999
▁Fl 999
▁attaquer 999
cir 999
▁Sho 999
▁vampire 999
nam 999
▁Colombie 999
▁vaches 999
▁Figaro 999
▁Hauteur 999
▁staff 999
— 999
▁publicités 999
▁industrie 999
▁sauve 999
▁recommander 999
Espace 999
▁sortis 999
▁VO 999
▁organique 999
▁Store 999
▁résidences 999
neuse 999
▁éternelle 999
▁Wars 999
▁affirmer 999
▁Bis 999
flex 999
EU 999
essaye 999
▁Envie 999
▁divisé 999
▁potable 999
style 999
▁transit 999
▁handicapées 999
^ 999
OD 999
édi 999
▁rejeté 999
▁Audi 999
alli 999
▁ô 999
▁sécuritaire 999
▁maternité 999
▁inégalités 999
▁délire 999
nistes 999
▁Ran 999
▁révélation 999
▁plantation 999
▁videos 999
▁envoyés 999
ump 999
roma 999
▁Hong 999
▁Pack 999
▁impressions 999
▁planètes 999
▁emmène 999
évolu 999
▁Phil 999
▁speed 999
▁vraies 999
▁vivons 999
▁gluten 999
▁séparés 999
▁ethnique 999
▁dangereuse 999
▁qq 999
annulation 999
▁1982 999
cière 999
▁1968 999
CF 999
▁sacrifice 999
guet 999
▁revues 999
▁menacé 999
▁ven 999
▁Poly 999
▁Dimensions 999
Gr 999
ouch 999
So 999
orchestre 999
▁Membre 999
▁bâtir 999
▁fiables 999
▁Hélène 999
▁surnom 999
▁implication 999
sac 999
biotique 999
▁major 999
urban 999
exercer 999
▁équilibré 999
had 999
ibles 999
▁cellulaire 999
▁accuse 999
▁Choisir 999
▁notoriété 999
▁pénible 999
▁souffrant 999
▁Sites 999
▁greffe 999
pression 999
▁actionnaires 999
huit 999
ood 999
ssier 999
▁Située 999
▁lignée 999
▁thermo 999
▁TTC 999
▁publiées 999
éta 999
▁rencontrés 999
éthique 999
▁tache 999
own 999
▁RC 999
▁essayez 999
▁inédit 999
uki 999
▁Mak 999
échanger 999
rah 999
experts 999
abbé 999
phon 999
▁impératif 999
admission 999
▁craindre 999
Agriculture 999
▁piece 999
▁Accès 999
▁gastronomie 999
▁Hauts 999
▁DR 999
▁fis 999
NES 999
▁perce 999
▁sépare 999
▁Appel 999
▁merlin 999
▁intégrale 999
RG 999
rô 999
▁Etude 999
bres 999
isa 999
ancier 999
▁Rub 999
▁camions 999
chy 999
▁hôtes 999
▁utilisons 999
ssel 999
trage 999
oyer 999
▁rame 999
jpg 999
▁BTS 999
▁clef 999
rue 999
▁Cuba 999
sort 999
kou 999
▁perle 999
MAN 999
ista 999
marin 999
empire 999
▁Simple 999
▁chauds 999
▁valent 999
▁suffi 999
▁Flo 999
▁Streaming 999
▁doublure 999
appartenance 999
▁crier 999
▁immobilières 999
▁Présent 999
▁dispute 999
▁sup 999
▁gardant 999
iro 999
▁Nul 999
▁habit 999
ellement 999
allonge 999
▁colon 999
▁progressive 999
iri 999
▁Vau 999
uni 999
▁guéri 999
▁Sea 999
▁amovible 999
estime 999
▁linéaire 999
▁compatibles 999
▁pensant 999
▁Expert 999
▁nus 999
▁occupée 999
▁Personnes 999
alerte 999
▁grains 999
Armée 999
orne 999
▁Math 999
▁Box 999
▁méga 999
▁maigre 999
▁Esp 999
▁rot 999
Utilisateur 999
▁coalition 999
▁couvercle 999
▁lisant 999
▁déroulée 999
▁Longue 999
▁métaux 999
▁conseillons 999
gli 999
▁créatrice 999
▁illégale 999
▁orientations 999
▁plain 999
▁romaine 999
Arabie 999
social 999
Her 999
mate 999
hard 999
▁cardio 999
▁1930 999
sec 999
QU 999
▁situées 999
▁cochon 999
▁urgent 999
registr 999
▁newsletter 999
André 999
▁étanche 999
▁Reims 999
▁Gaulle 999
▁végétale 999
allemand 999
▁Tube 999
▁étroit 999
▁Base 999
RR 999
▁Pass 999
▁livrée 999
▁créent 999
▁ah 999
▁ému 999
▁boue 999
▁Nouvel 999
▁solaires 999
rv 999
▁sucer 999
▁sanction 999
▁domestiques 999
▁Nouvelles 999
▁0,1 999
▁Indi 999
▁rédacteur 999
▁Données 999
▁Tableau 999
▁reco 999
▁Santa 999
mise 999
▁décoré 999
agissant 999
▁lointain 999
▁Amour 999
▁supporters 999
▁Technique 999
mini 999
TION 999
▁Riche 999
▁colline 999
▁Steve 999
▁psoriasis 999
Espagnol 999
▁Décembre 999
▁flacon 999
▁insectes 999
élan 999
▁hy 999
▁gants 999
color 999
▁approches 999
▁démons 999
▁hôpitaux 999
▁rencontr 999
/3 999
▁QU 999
AUX 999
▁explicite 999
FP 999
▁bagages 999
▁marchands 999
▁semblables 999
▁Social 999
▁axe 999
▁XVIIIe 999
▁caresse 999
▁atypique 999
▁éliminé 999
▁Céline 999
▁bénéficiaires 999
▁tirs 999
cout 999
▁autorisés 999
▁molle 999
▁Bat 999
naud 999
RY 999
américain 999
tance 999
▁Sortie 999
tens 999
▁out 999
ysfonctionnement 999
▁twitter 999
▁clips 999
▁sus 999
▁alla 999
▁costumes 999
ké 999
▁donnez 999
âche 999
▁Sel 999
fen 999
text 999
▁pelouse 999
▁tribunaux 999
boul 999
▁Sociale 999
▁Mots 999
tam 999
▁battant 999
▁Commande 999
▁serrurerie 999
▁cuve 999
▁Heures 999
▁aidant 999
Administration 999
originalité 999
▁tue 999
▁École 999
Apple 999
▁[1] 999
▁Casa 999
▁préfèrent 999
ston 999
▁donnés 999
▁Pokémon 999
▁dénoncé 999
▁copropriété 999
connect 999
▁forcer 999
▁indiquée 999
PD 999
▁contrôlé 999
infini 999
▁fondu 999
▁Tir 999
▁Atelier 999
gua 999
▁renoncer 999
▁exécutif 999
▁angles 999
illo 999
▁Wikipédia 999
▁pilule 999
▁Villeneuve 999
vio 999
▁antenne 999
▁Remarque 999
▁Johnny 999
list 999
▁successeur 999
▁Smart 999
▁surprendre 999
▁illusion 999
Bou 999
▁Ado 999
/4 999
▁aurons 999
inflation 999
▁anges 999
▁reflète 999
▁cigarette 999
ommercialisation 999
▁natal 999
▁aménagement 999
▁harcèlement 999
▁Déclaration 999
▁confidentiel 999
▁Secret 999
▁coloré 999
▁Support 999
intégrité 999
attacher 999
intérêts 999
▁serviteur 999
appuyer 999
affection 999
▁manifester 999
▁Boutique 999
▁cents 999
▁obtenus 999
yre 999
TU 999
/03/ 999
rate 999
▁Organ 999
▁piment 999
▁compositions 999
iseur 999
▁sortira 999
▁allié 999
▁Difficile 999
▁bactéries 999
▁israélien 999
▁mères 999
ias 999
▁cyber 999
▁rassurant 999
▁parlementaires 999
▁localité 999
▁trésors 999
▁rénové 999
étendue 999
▁éventuelle 999
▁Scott 999
obs 999
▁Puy 999
UF 999
▁développés 999
▁Gh 999
▁Loin 999
▁Cra 999
??? 999
▁douloureux 999
▁trajectoire 999
▁corse 999
▁Gor 999
hyper 999
▁employeurs 999
▁Parisien 999
▁Route 999
ike 999
issage 999
▁accrue 999
▁créatif 999
▁procédés 999
▁Bag 999
▁Enfants 999
▁plaie 999
Égypte 999
▁relâche 999
ingénierie 999
▁quiconque 999
▁contribuent 999
articule 999
▁libéral 999
▁Jura 999
artisanat 999
▁définitif 999
noir 999
jan 999
ssaient 999
▁recouvert 999
▁intéresser 999
▁cop 999
oudre 999
▁BE 999
assassinat 999
▁publi 999
▁José 999
▁énergétiques 999
▁chroniques 999
Ab 999
END 999
ignan 999
▁open 999
▁industrielles 999
install 999
▁5000 999
roc 999
ull 999
MD 999
▁lente 999
▁résidentiel 999
▁raide 999
▁sculpture 999
cio 999
▁Arc 999
▁bec 999
commun 999
omme 999
▁chirurgien 999
▁amusé 999
VE 999
▁optimal 999
invitation 999
public 999
▁pêcheurs 999
▁soigné 999
▁finissent 999
▁classée 999
▁DA 999
▁Japonais 999
▁effective 999
éloigner 999
▁succ 999
▁Roumanie 999
far 999
▁cheville 999
▁releva 999
▁indépendance 999
/02/ 999
▁insiste 999
▁pareille 999
ssais 999
heures 999
dium 999
▁gardes 999
▁leroy 999
▁MS 999
tran 999
▁finis 999
▁Amis 999
▁subventions 999
iza 999
/06/ 999
blé 999
▁Linux 999
▁palier 999
▁Plutôt 999
▁slogan 999
▁conclut 999
▁Concours 999
quier 999
▁faillite 999
travail 999
gné 999
SN 999
▁Jam 999
lly 999
▁inédite 999
▁recueille 999
▁venaient 999
-13 999
Arc 999
inspecteur 999
▁guérir 999
▁Lucas 999
▁allés 999
risé 999
▁risquent 999
▁négocier 999
▁arbitre 999
BL 999
’« 999
▁stylo 999
data 999
▁Voila 999
Cor 999
etait 999
oub 999
ILLE 999
Autorité 999
▁prier 999
▁coureurs 999
pid 999
▁Gla 999
▁sillon 999
▁foutre 999
watch 999
▁reçues 999
▁recueillir 999
Britannique 999
▁récompensé 999
▁gravure 999
▁crèche 999
▁Poids 999
▁gendarmerie 999
▁combiné 999
▁Début 999
▁Cinq 999
▁croisé 999
▁remontée 999
▁Age 999
▁Camping 999
acceptation 999
▁illimité 999
hort 999
OF 999
▁pair 999
▁latérale 999
équi 999
enjeu 999
▁modifiée 999
invite 999
▁Belge 999
▁Loisirs 999
▁Robin 999
▁SAINT 999
▁Marketing 999
▁envoi 999
▁laissée 999
▁resto 999
wen 999
▁bénéficié 999
▁câbles 999
▁prolonger 999
▁1979 999
▁vignes 999
▁amélioré 999
▁Terrasse 999
motion 999
▁sombres 999
▁parlement 999
▁réparti 999
▁acquisition 999
ALL 999
▁centimètres 999
▁Zen 999
▁Island 999
apprécier 999
ool 999
RIS 999
▁repéré 999
▁millénaire 999
▁aimerait 999
▁alternance 999
▁time 999
▁bordeaux 999
▁vache 999
▁dominante 999
▁Petites 999
▁maquette 999
▁Cadre 999
UV 999
▁Gala 999
▁marches 999
▁leva 999
▁fraction 999
▁visages 999
▁clics 999
voc 999
▁armé 999
▁finalité 999
▁Construction 999
▁Lausanne 999
▁ouvrière 999
invasion 999
▁géographie 999
hin 999
▁RDV 999
▁frisson 999
opéra 999
ouk 999
▁renvoyer 999
▁réputé 999
▁obligatoires 999
▁mérité 999
▁règlements 999
▁strat 999
▁Berg 999
tric 999
▁fourniture 999
▁ancêtres 999
▁épuisé 999
▁lavabo 999
▁reporter 999
pant 999
oles 999
▁couler 999
▁essayant 999
▁entrant 999
▁indé 999
enthousiasme 999
ambition 999
▁Maisons 999
▁parois 999
▁barres 999
ises 999
▁attache 999
▁officiers 999
libert 999
interroger 999
▁stocker 999
▁Mercedes 999
▁popularité 999
▁joyeux 999
▁policière 999
▁Lé 999
▁paysans 999
▁conventions 999
omo 999
human 999
▁propreté 999
▁1976 999
uth 999
▁fournitures 999
até 999
▁psy 999
▁Transport 999
▁extrêmes 999
▁ambitions 999
▁maitre 999
arre 999
belle 999
▁Possibilité 999
▁baignade 999
▁Matériel 999
abbaye 999
éman 999
CG 999
▁végétation 999
EAU 999
▁guérison 999
vable 999
▁Dernier 999
▁Neu 999
Ta 999
stream 999
▁moche 999
TF 999
▁considèrent 999
▁actualités 999
oïde 999
▁tombent 999
▁caisses 999
▁copier 999
▁ressemblent 999
than 999
▁portables 999
▁CAR 999
mili 999
ambi 999
▁jouet 999
orme 999
▁examiné 999
▁demandée 999
▁architecte 999
▁assumer 999
▁Sylvie 999
▁Casino 999
neuf 999
libr 999
▁genou 999
ij 999
▁2007. 999
▁Mand 999
gol 999
oh 999
▁menus 999
▁favorables 999
tenez 999
▁poire 999
▁cross 999
fact 999
▁fondateurs 999
▁Divers 999
▁interactif 999
▁HT 999
▁fleuri 999
embrasser 999
pren 999
IVE 999
/11/ 999
▁privilégier 999
▁séduction 999
▁Ultra 999
▁Chinois 999
▁usines 999
▁héritage 999
▁activé 999
▁hol 999
chal 999
▁pots 999
dieu 999
▁étonnante 999
▁rattraper 999
cup 999
cit 999
▁agréables 999
▁Réf 999
nz 999
annoncer 999
▁galeries 999
▁respectueux 999
▁suscité 999
▁luminaire 999
▁Téléphone 999
▁Prendre 999
▁âges 999
▁nage 999
rid 999
OB 999
▁mentalité 999
▁export 999
▁dessine 999
▁passionnée 999
▁finitions 999
▁comprise 999
ains 999
▁lin 999
▁fournie 999
▁souffrent 999
nité 999
EUX 999
At 999
▁crédible 999
▁hostile 999
▁minuscule 999
▁significatif 999
▁littoral 999
▁Toronto 999
▁calories 999
nas 999
▁homogène 999
▁Arnaud 999
** 999
▁mettait 999
peut 999
▁subtile 999
etc 999
ogue 999
▁retours 999
HI 999
▁trame 999
▁interactions 999
▁violet 999
▁Amb 999
▁calmer 999
▁tutoriel 999
▁brève 999
mens 999
▁GP 999
▁tonne 999
▁Express 999
▁decoration 999
▁écrivains 999
métrage 999
tite 999
▁autorisée 999
cot 999
▁Vel 999
▁modéré 999
▁fabriquée 999
▁Cloud 999
▁légitimité 999
▁Voiture 999
▁connaissons 999
▁dénonce 999
▁combine 999
▁href 999
ness 999
▁simultanément 999
▁Xbox 999
arts 999
sexuel 999
▁primordial 999
▁annuaire 999
▁réglages 999
LL 999
▁innovation 999
ONE 999
opé 999
▁paiements 999
rial 999
quot 999
▁apprécie 999
illons 999
▁eco 999
DT 999
/05/ 999
▁Jones 999
▁Magazine 999
ouiller 999
OW 999
hom 999
▁viagra 999
▁Gren 999
▁Barre 999
tale 999
▁Regardez 999
▁habituel 999
cler 999
culture 999
▁sperme 999
▁emblématique 999
▁confronté 999
▁Rel 999
▁coude 999
attirer 999
▁contribu 999
▁pay 999
▁Lettre 999
▁Carr 999
▁Aff 999
▁compétitif 999
▁néerlandais 999
▁promener 999
▁suédois 999
▁textile 999
▁échangé 999
▁flottant 999
▁SAS 999
BR 999
!" 999
ics 999
▁gâteaux 999
▁cuite 999
▁cout 999
▁class 999
▁graisses 999
pat 999
▁Moins 999
▁Togo 999
▁Luxe 999
▁ciné 999
cation 999
cription 999
-14 999
▁animés 999
▁conviviale 999
▁réguliers 999
▁médiévale 999
▁opérateur 999
▁pencher 999
Univers 999
aria 999
annonces 999
Que 999
▁panorama 999
▁Libye 999
▁chèvre 999
▁recevez 999
▁Chambres 999
▁culotte 999
▁Pel 999
inf 999
▁Cad 999
▁spécialisées 999
▁abandonner 999
▁insulte 999
▁isolée 999
▁metal 999
▁impatience 999
▁transparente 999
▁apportant 999
automobile 999
gnon 999
dure 999
outre 999
apprend 999
▁mani 999
▁craquer 999
/09/ 999
▁Gué 999
▁féministe 999
▁vigilance 999
▁détient 999
▁Allemands 999
arrache 999
▁assassiné 999
▁mariés 999
▁Martine 999
▁foulée 999
▁québécoise 999
▁trouvais 999
▁reçus 999
▁Ami 999
Maritime 999
INT 999
pte 999
2000 999
▁renforcée 999
chain 999
▁VF 999
ilo 999
▁dictature 999
▁Speed 999
▁Lycée 999
▁contestation 999
▁Adresse 999
▁négligeable 999
NET 999
emme 999
▁demeurent 999
▁embarqué 999
▁manuelle 999
▁quotidiennes 999
ouillé 999
▁banni 999
▁malin 999
élo 999
▁remarquables 999
▁définis 999
▁élan 999
esque 999
Jo 999
++ 999
acteurs 999
▁inoxydable 999
▁tweet 999
▁Février 999
▁tranché 999
▁Désolé 999
▁RCS 999
Elysée 999
▁foudre 999
mane 999
ISE 999
▁Puisque 999
▁rebelles 999
▁résident 999
ONG 999
enceinte 999
▁chasseurs 999
production 999
expo 999
▁(5) 999
▁plaisirs 999
▁compilation 999
▁rentabilité 999
▁situ 999
▁Conception 999
▁atteints 999
▁causer 999
▁réchauffement 999
▁chants 999
▁travesti 999
rey 999
incendie 999
abus 999
AO 999
▁Best 999
▁dépose 999
▁Sin 999
▁Napoléon 999
▁Burkina 999
▁Inscrivez 999
▁périodique 999
▁corr 999
▁amende 999
pis 999
▁airs 999
▁Superbe 999
▁innovant 999
SO 999
him 999
▁Temple 999
hol 999
excellente 999
▁vies 999
▁Messi 999
▁provinces 999
▁banal 999
▁Fontaine 999
▁Toulon 999
▁craque 999
venir 999
▁Project 999
▁reparti 999
▁rendra 999
▁Droits 999
▁variation 999
▁mondialisation 999
▁ponts 999
▁reflet 999
▁volé 999
▁regroupement 999
▁valise 999
▁descendant 999
▁relancer 999
▁enregistrés 999
▁pâle 999
▁tré 999
▁bêtes 999
▁constituant 999
entraide 999
▁Youtube 999
For 999
▁pharmacien 999
▁entoure 999
éclair 999
▁interlocuteur 999
▁acheteurs 999
formes 999
▁détenus 999
ings 999
▁MO 999
▁Editions 999
▁dédiés 999
prenant 999
▁stimuler 999
▁complot 999
terie 999
▁indésirables 999
▁TH 999
▁hypo 999
ires 999
▁Thor 999
ted 999
▁transférer 999
▁occidentaux 999
▁clarté 999
▁prudence 999
▁Jac 999
▁subvention 999
▁cat 999
▁Mau 999
▁hésiter 999
avérer 999
▁biographie 999
▁PDG 999
ouilles 999
/8 999
nin 999
▁Blu 999
▁techno 999
▁respirer 999
vaux 999
Op 999
▁singe 999
/04/ 999
▁persiste 999
▁opéra 999
▁Tarif 999
▁pourrons 999
▁AV 999
icon 999
▁pac 999
zone 999
Er 999
▁mp 999
leurs 999
▁Esprit 999
▁diminué 999
▁fabuleux 999
▁Chan 999
▁administratifs 999
▁certifié 999
▁grammes 999
▁diamant 999
▁terminal 999
trap 999
aptitude 999
▁terrasses 999
▁campus 999
trique 999
adolescent 999
NY 999
▁nécessitent 999
▁high 999
▁Emma 999
▁volcan 999
▁enregistrement 999
▁disparaît 999
▁mord 999
▁entourée 999
▁Arr 999
▁explosion 999
alarme 999
▁indéniable 999
▁polyester 999
▁pivot 999
▁Dela 999
▁déplacé 999
▁broderie 999
▁Laura 999
▁distributeur 999
▁rêvé 999
▁précisant 999
▁sélectionnez 999
▁dérive 999
▁patte 999
▁entra 999
club 999
▁Meilleures 999
▁assurez 999
▁cédé 999
▁déclin 999
▁Calais 999
▁System 999
▁tourna 999
▁voyais 999
▁contrepartie 999
▁Int 999
▁soumises 999
lave 999
▁strict 999
▁Pur 999
▁comique 999
▁Id 999
chou 999
▁idee 999
▁3) 999
▁Tony 999
ingue 999
DH 999
▁échappé 999
▁Renaissance 999
▁beige 999
▁Rappelons 999
▁reproduit 999
▁Flash 999
▁saumon 999
▁ICI 999
▁traitant 999
▁excuse 999
2008 999
▁acides 999
infrastructure 999
▁1920 999
centre 999
▁LO 999
▁cosmétiques 999
▁versé 999
▁affilié 999
▁foncière 999
▁Découverte 999
▁destinataire 999
hot 999
▁optimisé 999
▁percevoir 999
▁priv 999
▁Kevin 999
▁ajustement 999
▁Hervé 999
▁affecter 999
▁Gaz 999
▁réductions 999
▁prescription 999
RET 999
▁Fran 999
▁Version 999
▁fondement 999
▁officielles 999
iqué 999
▁SU 999
[2] 999
▁rapprochement 999
▁arrondi 999
▁sirop 999
▁Déco 999
▁méthodologie 999
▁mélangé 999
▁Week 999
▁minuit 999
▁fiscalité 999
omètre 999
roux 999
▁maroc 999
▁croyance 999
activ 999
▁Recette 999
▁reposant 999
retour 999
▁puni 999
▁Hard 999
▁chaussée 999
▁sauna 999
▁décoratif 999
▁FM 999
▁prêter 999
▁obstacle 999
▁nucléaires 999
umé 999
▁oh 999
▁différemment 999
▁Dossier 999
▁Paradis 999
▁collé 999
▁Vraiment 999
ington 999
▁cotisation 999
adresser 999
▁pneu 999
▁maintient 999
surtout 999
▁Gabon 999
▁comportant 999
▁gênant 999
esclavage 999
▁télécommande 999
▁spectre 999
ank 999
▁chlor 999
thor 999
▁fréquentation 999
▁intensité 999
▁boy 999
▁joints 999
▁Maur 999
▁temp 999
utilisateurs 999
▁Mira 999
▁causé 999
oïdes 999
dier 999
▁compartiment 999
▁Populaire 999
▁capteurs 999
▁budgets 999
▁youtube 999
▁coincé 999
▁domine 999
monde 999
▁studios 999
▁flamme 999
▁vertical 999
▁capot 999
isolement 999
otti 999
▁Gau 999
zou 999
DL 999
▁introduction 999
▁patrons 999
illot 999
▁VII 999
oro 999
▁Sang 999
mart 999
pense 999
ender 999
▁Suivez 999
▁capsule 999
▁Brown 999
évasion 999
▁Jazz 999
▁complets 999
▁confondre 999
▁biologiques 999
▁XIII 999
énorme 999
arch 999
▁vertes 999
▁bouché 999
▁favorisant 999
▁énormes 999
▁saute 999
ele 999
BI 999
SH 999
▁papillon 999
▁corporelle 999
▁monastère 999
▁Travaux 999
▁défunt 999
▁indifférent 999
▁reconnaissant 999
▁PU 999
aris 999
▁PI 999
▁dressé 999
poser 999
▁tarot 999
▁Théo 999
▁bannière 999
▁cibles 999
▁trains 999
Ver 999
uée 999
▁aboutir 999
▁40% 999
▁fiscales 999
▁Jolie 999
llé 999
astro 999
▁réparations 999
quoi 999
▁Cordialement 999
▁luminosité 999
▁demeurant 999
▁240 999
▁BP 999
expert 999
activation 999
arm 999
gènes 999
▁affecte 999
▁vides 999
▁5% 999
explo 999
▁observée 999
aimais 999
▁convenu 999
▁épices 999
écho 999
▁planter 999
word 999
SD 999
▁cohésion 999
▁toulouse 999
▁Gîte 999
▁Objet 999
▁vecteur 999
▁Capital 999
arrestation 999
▁entamé 999
▁retrouverez 999
▁appréciée 999
GER 999
▁acceptée 999
▁tarder 999
▁colonie 999
▁Vé 999
actuel 999
▁édifice 999
lex 999
▁répété 999
▁chargeur 999
▁atteintes 999
▁légères 999
ADE 999
soft 999
▁vasque 999
▁grillé 999
▁généré 999
▁Philip 999
▁associatif 999
▁Smith 999
▁maigrir 999
▁souveraineté 999
▁objective 999
éloigne 999
kers 999
▁souriant 999
Inter 999
2009 999
▁PER 999
ller 999
▁Hou 999
avancer 999
▁1944 999
▁douane 999
▁affichée 999
▁vieilli 999
▁Call 999
TH 999
vid 999
• 999
exploration 999
épouse 999
▁cachés 999
PM 999
▁sien 999
................ 999
▁aigu 999
indi 999
▁énergique 999
tente 999
▁récolté 999
▁Color 999
▁parution 999
▁performante 999
▁Accessoires 999
▁FRANCE 999
habit 999
▁déja 999
▁monture 999
tend 999
atre 999
inqui 999
▁compensation 999
endettement 999
▁calculs 999
▁School 999
Ap 999
▁iphone 999
▁belges 999
arrêté 999
iver 999
▁enfermé 999
AUD 999
illée 999
▁prétendu 999
▁susciter 999
▁connectée 999
urée 999
UG 999
accessoires 999
ucci 999
▁magazines 999
engagent 999
▁ère 999
▁»). 999
▁pét 999
▁love 999
▁Installation 999
énigme 999
▁bouclier 999
▁entrepreneur 999
▁souffrances 999
▁Coran 999
▁lentilles 999
▁Esc 999
elf 999
annon 999
sistance 999
▁loué 999
▁confiant 999
▁Kid 999
▁souhaitait 999
▁démocrate 999
▁délicatement 999
▁produis 999
space 999
▁convertir 999
ingrédient 999
ivement 999
▁acceptable 999
unanimité 999
[4] 999
▁emporté 999
▁brisé 999
▁choisissant 999
▁confiture 999
▁opté 999
inage 999
laud 999
/6 999
▁Métropole 999
▁britanniques 999
Mé 999
▁appr 999
▁scénarios 999
▁Show 999
▁pourrai 999
▁syrien 999
mobile 999
oblige 999
Provence 999
▁adeptes 999
▁inviter 999
▁briser 999
▁lion 999
▁châssis 999
▁singulière 999
▁ventilation 999
▁descriptif 999
▁conquis 999
▁Concert 999
▁voi 999
ift 999
▁annexe 999
▁Ann 999
▁travaillons 999
Do 999
initier 999
▁concernée 999
▁incident 999
▁Franco 999
▁RA 999
▁prioritaire 999
▁occidental 999
gén 999
▁Organisation 999
dh 999
appli 999
▁dise 999
▁exploiter 999
invention 999
▁bornes 999
▁intervenant 999
▁agro 999
▁corne 999
▁arrête 999
▁retrace 999
▁découpé 999
▁veuve 999
▁Samuel 999
▁Rev 999
▁present 999
▁Fen 999
▁JE 999
▁Vis 999
▁Us 999
▁infini 999
ket 999
RU 999
▁sentais 999
▁violente 999
cue 999
▁Sexy 999
▁(13 999
▁réjoui 999
▁éclairé 999
▁légendes 999
▁arrêtés 999
▁union 999
▁sentez 999
rouge 999
▁stagiaires 999
▁manquant 999
accroche 999
▁roulement 999
▁collectives 999
▁collèges 999
chin 999
▁festivals 999
▁grace 999
▁Juan 999
titre 999
▁Cos 999
▁délivrer 999
▁laissait 999
▁Mill 999
▁motivé 999
150 999
▁Bout 999
zin 999
attaquant 999
ery 999
▁LI 999
étanchéité 999
▁Bluetooth 999
▁capitaux 999
▁Logiciel 999
▁jungle 999
▁retourna 999
▁renfort 999
▁Good 999
▁enseigné 999
▁Duc 999
▁inutiles 999
game 999
groupe 999
YS 999
EY 999
IST 999
ducteur 999
dépendant 999
équipage 999
▁Victoria 999
uaire 999
▁ours 999
▁université 999
▁Cru 999
▁influencé 999
▁croyait 999
inquiéter 999
▁Tandis 999
media 999
▁1972 999
▁rh 999
▁1914 999
▁dessiné 999
▁prostituee 999
normal 999
▁négatifs 999
illusion 999
achève 999
▁Mgr 999
▁Wood 999
▁Seuls 999
▁éphémère 999
▁Ressources 999
▁pacifique 999
▁homologue 999
gène 999
▁méta 999
▁MM 999
▁Extrait 999
oiseau 999
▁230 999
▁hip 999
▁RDC 999
▁assurés 999
▁écologiques 999
GB 999
file 999
Ah 999
▁osé 999
▁distributeurs 999
▁nourrit 999
▁flirt 999
▁commissions 999
▁congolais 999
▁nœud 999
▁trottoir 999
▁Éditions 999
▁adverse 999
▁manifestants 999
▁terroriste 999
▁Etre 999
▁lieutenant 999
tablissement 999
▁tentation 999
cut 999
▁armés 999
▁Fat 999
▁Cord 999
▁gland 999
bag 999
▁sincèrement 999
onglet 999
▁composantes 999
▁stricte 999
veill 999
▁niche 999
▁chevalier 999
▁accorde 999
▁Proche 999
▁bookmarking 999
▁irréprochable 999
▁spacieux 999
▁phil 999
▁marrant 999
▁levure 999
▁appart 999
▁designer 999
▁good 999
PORT 999
▁vitesses 999
▁municipales 999
▁Filles 999
▁Bach 999
▁déçue 999
▁hybride 999
▁1977 999
▁Forme 999
équipements 999
▁fonde 999
▁intermédiaires 999
▁hypothèse 999
fit 999
nna 999
▁rêv 999
faut 999
mons 999
EO 999
▁fra 999
PF 999
▁ventilateur 999
▁préservation 999
▁moniteur 999
▁Actu 999
▁trouvaient 999
▁affecté 999
▁Maxime 999
▁magiques 999
▁incontournables 999
Su 999
▁ascenseur 999
envers 999
▁Cab 999
▁développent 999
▁Brun 999
organis 999
Fa 999
ogène 999
graphique 999
▁pompiers 999
▁Centrale 999
▁Chapitre 999
▁pirate 999
▁brique 999
rose 999
▁baissé 999
embl 999
▁=> 999
▁comptant 999
▁oncle 999
dress 999
▁avantageux 999
▁Rav 999
▁instantanément 999
▁dingue 999
▁chasseur 999
▁adéquat 999
▁utilisable 999
▁Exposition 999
▁désordre 999
vette 999
▁sonde 999
▁existantes 999
▁indices 999
approcher 999
▁spot 999
▁Mine 999
▁plateaux 999
isseur 999
▁bidon 999
▁Guadeloupe 999
▁Véritable 999
▁bombarde 999
▁consensus 999
▁Chicago 999
▁présumé 999
▁Définition 999
▁titulaires 999
▁terriblement 999
▁décalage 999
▁regretter 999
▁diplômés 999
▁Jackson 999
▁mystique 999
ovi 999
ambassade 999
▁prot 999
▁1974 999
▁Soi 999
▁discute 999
▁coûteux 999
▁Mesure 999
ifica 999
▁génère 999
▁détaillées 999
▁occupation 999
▁soupçon 999
Alsace 999
▁amendement 999
▁Tré 999
▁Time 999
▁Faculté 999
▁bêtise 999
▁compétitivité 999
▁sandwich 999
immo 999
▁inquiet 999
▁Population 999
oter 999
▁Caractéristique 999
rian 999
▁injuste 999
▁Papa 999
▁conformes 999
▁mamans 999
▁intégral 999
▁fu 999
édé 999
▁parlez 999
ios 999
▁tués 999
▁AP 999
▁étendu 999
▁flanc 999
▁Livres 999
kha 999
▁éventail 999
alisée 999
ior 999
▁recommencer 999
▁Kon 999
▁récepteur 999
▁préférer 999
▁globe 999
▁obtenez 999
beau 999
▁potes 999
▁fermes 999
ngu 999
Gu 999
▁ramené 999
étiquette 999
▁appellent 999
ALE 999
évalu 999
▁Central 999
▁breton 999
▁concrètes 999
urant 999
▁Kate 999
▁Baby 999
▁attribuée 999
▁acquise 999
QUI 999
▁galette 999
▁Spécial 999
▁chasser 999
kar 999
fusion 999
▁séquences 999
note 999
▁confirmée 999
▁chauffagiste 999
▁radar 999
▁contrôleur 999
inspire 999
▁fièvre 999
▁existait 999
bur 999
défini 999
ièvre 999
pho 999
▁title 999
▁Fla 999
▁acide 999
assis 999
▁TO 999
late 999
▁Nov 999
exe 999
▁aurais 999
▁hétéro 999
less 999
▁prédécesseur 999
▁vestiaire 999
▁attachant 999
▁ballade 999
▁précédé 999
colo 999
▁Grey 999
▁Savoir 999
assure 999
▁définies 999
▁étiquettes 999
▁intellectuel 999
▁vocale 999
▁capitaliste 999
▁noël 999
▁Ski 999
iaire 999
▁kilo 999
▁commençant 999
▁raffiné 999
tenu 999
cos 999
▁mentionnés 999
▁mentionne 999
▁Mention 999
▁Temp 999
▁résumer 999
▁cuisses 999
FO 999
▁ombre 999
▁lames 999
ashi 999
▁carrefour 999
▁refroidissement 999
▁Poitiers 999
▁recevrez 999
▁modération 999
icule 999
▁pénétration 999
ough 999
vain 999
▁Vend 999
▁Sala 999
▁League 999
▁servira 999
▁hd 999
▁croisée 999
aborder 999
▁enregistrées 999
▁intrigue 999
▁prestataire 999
▁Ul 999
▁prélèvement 999
▁orchestre 999
chaine 999
▁éleveur 999
▁tragédie 999
▁censure 999
▁Application 999
▁surmonter 999
▁multiplication 999
▁imagine 999
▁Ferme 999
thique 999
arriv 999
vari 999
▁communale 999
▁2019. 999
▁Ile 999
▁trousse 999
15. 999
nik 999
pert 999
▁théories 999
▁exécuter 999
▁conversations 999
▁will 999
▁proposera 999
▁lampes 999
▁Om 999
▁affiches 999
entiel 999
embauche 999
▁Décor 999
▁silencieuse 999
▁Dakar 999
onnement 999
▁ménager 999
AK 999
▁Kal 999
guy 999
▁aéroport 999
ragon 999
▁réglementaires 999
atch 999
oute 999
▁déni 999
▁1990, 999
gus 999
▁fonte 999
▁explore 999
▁gén 999
▁recouvre 999
▁Lance 999
▁Ess 999
▁nike 999
kk 999
▁marginal 999
▁rencontrent 999
▁vendeurs 999
▁cycles 999
▁tru 999
gain 999
/10/ 999
▁repères 999
▁vigne 999
▁vital 999
▁urbains 999
▁Chaud 999
disant 999
▁précisions 999
ordinaire 999
▁alimenté 999
▁attractif 999
▁empêché 999
▁noisette 999
▁excité 999
cheur 999
▁végétales 999
All 999
▁circuler 999
▁éventuels 999
▁chutes 999
▁siens 999
▁entretiens 999
çois 999
▁couette 999
Étienne 999
icide 999
rence 999
élégance 999
▁Beaux 999
OG 999
implantation 999
▁Din 999
▁endommagé 999
▁bcp 999
▁pitié 999
entraîneur 999
▁wifi 999
commande 999
▁travailleur 999
tière 999
▁Font 999
▁envisagé 999
▁parlons 999
▁vives 999
▁traîne 999
▁Mike 999
riques 999
Pi 999
alla 999
exploitant 999
▁judiciaires 999
hat 999
ANA 999
▁devienne 999
hotel 999
lut 999
moins 999
héritage 999
imaginaire 999
▁Amateur 999
▁Lin 999
▁cannabis 999
▁stimulant 999
▁administré 999
▁remorque 999
▁compenser 999
▁touch 999
▁teen 999
LD 999
▁Alger 999
▁planning 999
▁améliore 999
▁pirates 999
▁aiguilles 999
▁Pers 999
gard 999
conseil 999
▁relie 999
▁patiente 999
▁gilet 999
qués 999
▁Guil 999
▁bulletins 999
▁déca 999
MM 999
▁Rob 999
▁malaise 999
▁bonnet 999
▁débarque 999
terrestre 999
▁revendications 999
▁parcelle 999
▁précède 999
▁pensons 999
▁CNRS 999
▁Facile 999
affirmer 999
▁compétent 999
▁fascinant 999
avancement 999
▁Jane 999
▁Edit 999
▁pixels 999
▁peuplé 999
▁annuels 999
othérapie 999
asc 999
▁métropolitaine 999
▁Permet 999
Archi 999
▁invention 999
Occident 999
▁positives 999
dimension 999
vaisselle 999
Auto 999
SL 999
▁Evidemment 999
▁primaires 999
▁équilibrée 999
▁Chevalier 999
▁Heure 999
imposent 999
▁Champion 999
oie 999
▁chocs 999
attendait 999
▁Films 999
ôle 999
▁criminelle 999
▁Pacifique 999
voie 999
▁1° 999
▁innovante 999
▁SF 999
▁opter 999
▁Laboratoire 999
▁broyage 999
▁frustration 999
▁singulier 999
▁Traitement 999
▁détresse 999
▁hébergé 999
▁Pinterest 999
▁diesel 999
▁pionnier 999
nerie 999
▁athlètes 999
illac 999
éry 999
code 999
▁Gil 999
arque 999
▁vaisseaux 999
▁1967 999
▁Bank 999
▁mette 999
▁coloniale 999
dol 999
...” 999
▁livr 999
lash 999
▁rangée 999
▁induit 999
▁résolument 999
éveille 999
▁achète 999
▁muscle 999
▁directeurs 999
Grand 999
▁fum 999
▁résiste 999
intéressé 999
omni 999
▁traumatisme 999
▁baroque 999
▁Entretien 999
▁rappelant 999
▁Quartier 999
inauguration 999
Allah 999
▁utilité 999
elin 999
Cl 999
▁restés 999
▁doubles 999
feuille 999
▁cohérent 999
▁»... 999
▁entités 999
▁masses 999
▁privilégie 999
▁Information 999
▁terreur 999
LY 999
▁nés 999
accumul 999
▁établis 999
▁dominé 999
▁prestige 999
▁Adulte 999
▁Libération 999
▁vœux 999
▁inédites 999
▁tuyau 999
▁sécher 999
/11 999
politique 999
posit 999
▁coquin 999
!!!!! 999
isons 999
▁disciples 999
▁ferons 999
▁intégrés 999
tisation 999
▁Jon 999
naux 999
▁spécificités 999
arr 999
▁suivis 999
clos 999
▁Lady 999
▁Reg 999
historique 999
Alliance 999
▁précaution 999
▁minorité 999
▁men 999
dence 999
▁junior 999
▁énoncé 999
▁prétention 999
▁nautique 999
Port 999
▁tentant 999
GM 999
▁Figure 999
▁incidence 999
iger 999
▁dentaire 999
▁combattant 999
▁Conseils 999
Voir 999
▁repasser 999
gros 999
▁congés 999
▁confiée 999
▁chiot 999
▁contractuelle 999
▁comporter 999
▁affirmation 999
▁candidatures 999
étendre 999
lick 999
▁témoignent 999
avan 999
▁assassin 999
▁races 999
MG 999
gale 999
▁vid 999
▁distances 999
jac 999
▁Thaïlande 999
▁agressif 999
▁Semaine 999
▁mour 999
▁Ref 999
▁pelle 999
....... 999
ffer 999
▁Portrait 999
entrainement 999
▁visent 999
corps 999
▁offertes 999
mol 999
▁SH 999
▁Charente 999
▁FO 999
taille 999
▁avéré 999
viendront 999
▁Tchat 999
olf 999
nien 999
DQ 999
▁autrui 999
▁gosse 999
▁tienne 999
2007 999
▁Cyril 999
original 999
▁plaindre 999
▁blues 999
▁Rochelle 999
▁senior 999
▁gays 999
affect 999
▁roulette 999
SF 999
icole 999
volution 999
▁Full 999
▁coute 999
▁compatibilité 999
▁plugin 999
▁aériennes 999
▁Celles 999
▁brûler 999
étonner 999
▁Charte 999
cinq 999
astique 999
ONT 999
▁paroi 999
UNESCO 999
▁yaourt 999
▁dégradé 999
▁apparente 999
▁sucrée 999
▁Alt 999
▁Finances 999
essa 999
bru 999
▁Cross 999
▁détaché 999
rène 999
▁surprend 999
▁PM 999
▁implanté 999
▁estiment 999
▁Aller 999
▁Intérieur 999
▁ressembler 999
▁Fab 999
▁Jar 999
▁COMP 999
ssac 999
cieuse 999
▁masques 999
▁conservateur 999
▁tract 999
▁Suivant 999
▁Palestine 999
technique 999
▁recevra 999
▁géants 999
▁intimes 999
craft 999
/08/ 999
mence 999
uli 999
mbre 999
▁tortue 999
▁inclure 999
appliquent 999
stone 999
Im 999
▁GA 999
chel 999
▁galère 999
▁comm 999
▁compléments 999
▁confus 999
▁mémoires 999
▁innovants 999
▁rédiger 999
▁voy 999
▁appartiennent 999
▁incontestable 999
aluminium 999
Rhône 999
[...] 999
▁précautions 999
tio 999
▁Match 999
▁moque 999
▁quoique 999
▁Golf 999
▁projecteur 999
▁statu 999
▁Marion 999
scope 999
▁échappe 999
▁import 999
▁pesant 999
▁Wild 999
▁contradictoire 999
▁prototype 999
▁compassion 999
▁classification 999
▁Manager 999
achète 999
▁Digital 999
▁traitées 999
▁vents 999
▁revivre 999
▁escaliers 999
▁visé 999
impossibilité 999
ander 999
▁retraités 999
▁2° 999
▁Univers 999
▁1962 999
exportation 999
cette 999
liser 999
▁sculptures 999
uler 999
▁grimper 999
▁Prêt 999
?! 999
▁ruines 999
ario 999
▁GU 999
▁Siège 999
▁Kong 999
HD 999
▁Prise 999
prendre 999
▁baptisé 999
▁Band 999
▁parentale 999
▁pesticides 999
▁scolarité 999
▁rassuré 999
▁consenti 999
ousse 999
thy 999
▁noblesse 999
▁animer 999
Ri 999
rico 999
▁Talon 999
▁1969 999
▁dresser 999
OUT 999
▁exposer 999
▁cuis 999
GUE 999
▁amicales 999
pole 999
▁réduits 999
cks 999
▁Supérieur 999
▁Equi 999
▁serieuse 999
▁balades 999
anie 999
▁agrément 999
▁installe 999
▁Personnel 999
▁bailleur 999
auteure 999
1-2 999
marque 999
lock 999
▁Lion 999
affirme 999
▁Enfant 999
▁custom 999
gés 999
▁vraisemblable 999
▁César 999
urne 999
▁Derrière 999
▁versant 999
▁refroidir 999
▁préavis 999
dt 999
▁canalisation 999
▁concrètement 999
▁remplaçant 999
▁XV 999
▁meublé 999
▁emprunté 999
ocu 999
nni 999
personnalisation 999
▁Ange 999
▁transferts 999
▁matures 999
guerre 999
▁feuillet 999
▁Final 999
▁Etienne 999
▁vécue 999
▁massages 999
▁fourrure 999
▁réclame 999
▁signaux 999
uze 999
▁Station 999
▁cacao 999
▁(" 999
dot 999
▁0,5 999
GS 999
120 999
▁Offre 999
▁éteint 999
▁soft 999
▁devenant 999
▁Arrêt 999
tous 999
▁saluer 999
▁Propos 999
clair 999
Bon 999
▁israélienne 999
▁survol 999
▁unies 999
▁gourmand 999
▁plumes 999
▁artificiel 999
▁suisses 999
▁ONG 999
▁foutu 999
▁Document 999
▁plaisant 999
oirs 999
iii 999
enberg 999
▁Conf 999
aste 999
▁Cécile 999
▁Jonathan 999
▁brochure 999
▁gallery 999
▁altitude 999
▁relaxation 999
▁cata 999
inger 999
▁fiers 999
▁age 999
otique 999
▁quotidiens 999
▁socialistes 999
▁interroge 999
▁jugée 999
▁Irak 999
▁impacts 999
▁itinéraire 999
▁agriculture 999
oca 999
urent 999
cop 999
▁influences 999
▁approfondie 999
▁aménagements 999
▁Shin 999
▁Kha 999
▁borne 999
▁coupée 999
▁tournois 999
▁radicale 999
indemnisation 999
inflammatoire 999
▁jalousie 999
▁mezzanine 999
▁possédant 999
▁évitant 999
▁Sylvain 999
▁apportera 999
explosion 999
▁unis 999
Electric 999
▁1973 999
▁décennie 999
▁bulles 999
lise 999
▁assorti 999
▁inauguré 999
▁phares 999
interaction 999
pierre 999
▁rente 999
▁veine 999
▁soulevé 999
▁satisfaisant 999
▁joues 999
▁transformée 999
▁agenda 999
▁commercialisé 999
▁ID 999
▁electrique 999
▁vêtu 999
▁martyr 999
agrément 999
intimité 999
dig 999
tics 999
▁Atlantique 999
▁BB 999
▁Bébé 999
▁réconfort 999
çons 999
▁transféré 999
attrait 999
▁coupes 999
SR 999
▁pompes 999
▁entraînement 999
▁naît 999
▁EDF 999
▁portés 999
▁recense 999
▁emploie 999
▁communautaires 999
ébou 999
mg 999
▁vendue 999
peur 999
▁référencé 999
▁Besoin 999
▁apprenant 999
▁rustique 999
▁départementale 999
▁enrichir 999
▁équipées 999
ott 999
coration 999
▁bougies 999
▁Mart 999
région 999
lène 999
5.000 999
▁Annuaire 999
▁recruter 999
FL 999
▁satisfaite 999
▁communal 999
▁regroupant 999
▁connecteur 999
issaient 999
tum 999
▁subsiste 999
▁incertain 999
▁Chapelle 999
try 999
▁suppli 999
▁LG 999
ologues 999
▁voyageur 999
assureur 999
▁découvrirez 999
▁Watch 999
link 999
▁aîné 999
enlèvement 999
emporte 999
▁administrateurs 999
lir 999
▁appuyer 999
étouff 999
▁1200 999
américaine 999
▁compression 999
▁pénis 999
▁geek 999
expérimentation 999
Yves 999
▁visée 999
▁préoccupation 999
▁marchandise 999
▁regardait 999
▁dérivé 999
▁employée 999
sel 999
▁réveillé 999
Be 999
▁poussent 999
▁Tes 999
NS 999
Ali 999
▁Link 999
LF 999
▁plongé 999
▁serieux 999
KO 999
▁(24 999
onnais 999
▁contrôlée 999
lerie 999
▁remédier 999
▁séduisant 999
▁hésité 999
▁Languedoc 999
excitation 999
[5] 999
▁cartons 999
▁soumet 999
▁loge 999
▁délice 999
▁Pap 999
viendra 999
▁durables 999
tac 999
▁touchent 999
▁livrés 999
▁Poli 999
▁Intégr 999
▁Cop 999
▁over 999
▁crypto 999
▁remplis 999
▁loups 999
observer 999
▁enfer 999
▁pertinent 999
▁Brand 999
▁dépourvu 999
▁recharger 999
/20 999
▁Notez 999
▁risqué 999
▁mènent 999
▁chienne 999
oût 999
voit 999
▁1971 999
▁chau 999
head 999
▁coaching 999
▁épée 999
▁coutume 999
▁fixés 999
lone 999
▁perf 999
▁biologie 999
▁bot 999
▁sourcils 999
chère 999
▁Fillon 999
▁brésilien 999
▁éternel 999
▁offensive 999
rill 999
copie 999
aco 999
250 999
=1 999
▁convictions 999
▁LCD 999
▁taillé 999
▁Global 999
▁assimilé 999
▁émouvant 999
▁Numéro 999
▁demandons 999
▁dénommé 999
▁candidate 999
▁turque 999
fé 999
▁Coque 999
▁obscur 999
êch 999
▁fantasme 999
▁Tab 999
▁Août 999
▁sms 999
fff 999
▁minière 999
▁Vari 999
▁Morgan 999
emport 999
▁exceptionnelles 999
▁nano 999
▁tan 999
▁fre 999
éléphant 999
▁flexibilité 999
▁Mettez 999
▁chariot 999
▁récupère 999
App 999
▁professions 999
ordonnance 999
▁enterré 999
humeur 999
igni 999
acquéreur 999
▁cran 999
▁puissances 999
▁Jim 999
miné 999
▁habitable 999
▁embarque 999
▁dys 999
30) 999
▁déployé 999
▁flo 999
accorder 999
▁câlin 999
▁justification 999
▁conviendra 999
▁officier 999
▁Départ 999
artisan 999
▁Guer 999
▁admet 999
▁indiquent 999
DU 999
▁localiser 999
▁Dream 999
▁attentivement 999
▁Metal 999
rées 999
▁Afficher 999
gna 999
ualité 999
▁détenteur 999
▁privilège 999
▁ext 999
▁préférences 999
robe 999
▁Ép 999
▁détachées 999
▁dirai 999
▁Cent 999
001 999
▁hôpital 999
▁handicapés 999
▁réagi 999
▁arm 999
▁Printemps 999
▁liquidation 999
▁excitant 999
imer 999
▁Times 999
▁pédale 999
▁reconnais 999
▁fournissent 999
▁Key 999
▁délibération 999
encadrement 999
▁Rat 999
▁CAN 999
▁Résultats 999
ector 999
▁comprimé 999
▁baies 999
▁impliqués 999
▁plates 999
▁Leroy 999
▁surprenante 999
coupe 999
▁Lind 999
OY 999
Ass 999
▁Mol 999
▁francaise 999
ranger 999
▁Grands 999
▁tueur 999
zel 999
▁Assemblée 999
▁exploité 999
▁exhaustive 999
▁triomphe 999
▁rectification 999
▁Lettres 999
rendu 999
▁retrouvés 999
▁soja 999
▁rater 999
▁Neuf 999
▁copines 999
▁Havre 999
efforce 999
home 999
▁sommets 999
▁accueillis 999
signe 999
obo 999
▁bur 999
▁Ry 999
Sou 999
▁call 999
antenne 999
▁aéro 999
finale 999
▁bénévole 999
iana 999
▁remont 999
hir 999
▁Gel 999
trée 999
▁tropicale 999
▁courbes 999
▁Rot 999
contract 999
LU 999
▁TOUT 999
oxyde 999
lav 999
▁mandataire 999
▁Casablanca 999
▁réciproque 999
▁optimiste 999
▁cursus 999
astrologie 999
▁Compar 999
▁admettre 999
▁sondages 999
▁repousser 999
▁soutiennent 999
▁concepteur 999
qual 999
▁vase 999
▁inconnus 999
agenda 999
▁Manu 999
▁copies 999
texte 999
▁Ier 999
▁régiment 999
▁Yann 999
▁protagonistes 999
▁jouait 999
▁détecteur 999
▁ring 999
▁Clar 999
▁mentionner 999
bia 999
▁colonies 999
armement 999
▁postal 999
▁privilégiée 999
gion 999
▁portées 999
▁opéré 999
▁Danemark 999
▁prestigieuse 999
▁soyons 999
▁photographes 999
▁Séjour 999
▁humble 999
▁bancs 999
▁accompagnent 999
▁vieil 999
▁cloison 999
▁cale 999
▁bâ 999
▁souscription 999
▁Lionel 999
▁plaira 999
▁litre 999
▁panel 999
▁créatifs 999
▁apte 999
▁périphérique 999
▁Nicole 999
▁conventionnelle 999
▁demandeur 999
agression 999
▁devise 999
▁creuser 999
▁théoriques 999
▁indication 999
▁mèche 999
▁TA 999
▁améliorations 999
cente 999
ONNE 999
▁chœur 999
▁vulnérabilité 999
anxiété 999
▁trempé 999
▁saturation 999
▁sonne 999
▁Francisco 999
▁pinceau 999
▁motivations 999
actuelle 999
effondrement 999
▁Pon 999
▁concrète 999
Atelier 999
interview 999
▁(30 999
espérance 999
▁Stock 999
▁sors 999
ouin 999
▁associe 999
▁progresse 999
▁dialogues 999
▁cialis 999
▁désastre 999
▁fonder 999
▁reviendra 999
▁Ny 999
▁écrites 999
▁fix 999
▁pourrions 999
▁alternatif 999
artifice 999
▁bruyant 999
▁emmené 999
▁Fermeture 999
▁mouillé 999
▁Poutine 999
▁filières 999
▁Montagne 999
Emmanuel 999
▁infections 999
▁rendait 999
parti 999
▁qualifie 999
▁questionnement 999
▁mural 999
▁commenter 999
emi 999
neux 999
▁Bab 999
▁confection 999
more 999
amen 999
▁injection 999
aler 999
▁Assurance 999
▁déclencher 999
▁instinct 999
▁arrivait 999
▁fiscaux 999
▁immunitaire 999
▁nostalgie 999
▁installateur 999
▁Trésor 999
▁Thèmes 999
▁Résistance 999
urine 999
▁coudre 999
▁gourmandise 999
▁attractions 999
▁firent 999
▁biscuits 999
▁alarme 999
▁Fall 999
▁suffira 999
▁adolescente 999
▁Shar 999
▁parts 999
▁SN 999
▁communion 999
▁MON 999
▁flic 999
Tra 999
▁majoritaire 999
arret 999
NU 999
▁Not 999
▁Eva 999
▁von 999
▁automobiles 999
▁Etant 999
▁tomba 999
▁éta 999
▁Environ 999
▁Impossible 999
▁abattu 999
▁mondiaux 999
▁Germain 999
He 999
exactitude 999
rov 999
▁polaire 999
▁orientée 999
▁recensement 999
miner 999
▁homo 999
▁criminels 999
▁olympique 999
rolles 999
▁), 999
Tech 999
▁rondes 999
▁Coco 999
▁balise 999
guette 999
rang 999
gour 999
▁rp 999
▁Gilbert 999
▁tournent 999
▁bénéficiant 999
pop 999
▁remplit 999
FF 999
▁courageux 999
▁multiplier 999
udo 999
Egypte 999
▁réputée 999
▁Cougar 999
▁esp 999
▁réalisme 999
▁Terrain 999
▁relèvent 999
▁révèlent 999
juste 999
Éternel 999
▁Mille 999
▁range 999
▁OP 999
▁Régional 999
rousse 999
fille 999
uke 999
▁restrictions 999
Bi 999
▁Education 999
▁Bulletin 999
mentation 999
▁modernisation 999
▁Régime 999
▁réhabilitation 999
▁profitent 999
▁IS 999
▁oiseau 999
▁régie 999
▁fromages 999
▁sponsor 999
▁arnaque 999
▁Chev 999
iba 999
▁Log 999
▁brand 999
▁compare 999
▁teintes 999
▁perdus 999
▁gl 999
icône 999
▁avatar 999
▁profitant 999
ône 999
▁Oct 999
hia 999
▁vider 999
▁lointaine 999
▁Hay 999
professionnelle 999
▁drap 999
dication 999
▁cost 999
▁Breton 999
▁transmises 999
▁ratio 999
▁doctorat 999
élévation 999
▁dauphin 999
▁fellation 999
▁Conçu 999
▁loue 999
affectation 999
odique 999
▁GRATUIT 999
▁Bert 999
▁environnant 999
ushi 999
▁esclaves 999
auront 999
path 999
▁peintres 999
▁sourd 999
atin 999
lang 999
▁réglementaire 999
joint 999
quand 999
▁déploie 999
▁rebelle 999
▁institutionnel 999
évit 999
▁Vatican 999
▁requiert 999
▁poursuivant 999
▁Chrome 999
▁Virginie 999
▁septième 999
▁interactive 999
▁THE 999
lyse 999
pli 999
▁correspondre 999
▁Langue 999
▁Job 999
▁témoigner 999
▁dessinateur 999
optique 999
▁rando 999
▁libère 999
rité 999
bid 999
▁expérimentés 999
▁rejoign 999
▁nana 999
▁hameau 999
électro 999
233 999
▁créées 999
▁Unis 999
▁Bande 999
▁cadet 999
▁prières 999
zzo 999
▁1998, 999
▁renvoyé 999
couvert 999
absorption 999
▁Marrakech 999
▁Norvège 999
▁rectangulaire 999
▁allusion 999
▁périple 999
▁retient 999
master 999
▁cochonne 999
▁Colomb 999
Comment 999
▁boitier 999
▁platine 999
▁Soirée 999
tral 999
▁architectes 999
excuse 999
▁obtenue 999
▁luttes 999
▁have 999
rencontres 999
Bar 999
▁Bet 999
envoie 999
▁éventuelles 999
▁conducteurs 999
▁payés 999
Pr 999
▁...... 999
▁associer 999
atti 999
▁serviette 999
▁évalué 999
▁break 999
▁Fal 999
▁PP 999
▁nationaliste 999
▁Mélenchon 999
▁céleste 999
▁diocèse 999
▁écrasé 999
▁gastronomique 999
▁déplore 999
gnol 999
▁ravage 999
▁aimable 999
▁Hongrie 999
▁achetez 999
▁survenu 999
▁accumulé 999
▁1999, 999
▁identifiant 999
▁Vir 999
arbitre 999
▁soudainement 999
▁Vice 999
▁clique 999
▁war 999
aviation 999
Ferrand 999
▁Ross 999
▁DÉ 999
acé 999
NF 999
▁Karl 999
▁publiquement 999
▁discut 999
IRE 999
▁Mondiale 999
▁ferma 999
uka 999
▁excuses 999
▁paquets 999
KA 999
▁alimenter 999
▁Mala 999
anecdote 999
▁syndical 999
plo 999
▁Futur 999
made 999
▁confession 999
▁corporel 999
▁revu 999
▁écarté 999
ful 999
▁AB 999
▁fourchette 999
dits 999
assou 999
Laurent 999
▁fixes 999
VER 999
▁Pier 999
▁colonial 999
lingue 999
usé 999
▁prononcée 999
▁typ 999
xie 999
PN 999
▁simplifier 999
atsu 999
▁patch 999
▁imposant 999
▁bascule 999
▁rosé 999
▁dévers 999
▁mails 999
▁consomme 999
▁ténèbres 999
▁cicatrice 999
▁participatif 999
▁made 999
dien 999
araignée 999
▁intégrant 999
▁sociologie 999
▁compacte 999
▁rafraîchissant 999
▁désespoir 999
▁Pékin 999
▁Angers 999
▁courtier 999
▁scénariste 999
▁Online 999
▁situer 999
illustration 999
▁CF 999
quent 999
▁Nick 999
▁Roc 999
▁pleure 999
▁Mul 999
▁CB 999
vide 999
▁Ans 999
▁endormi 999
▁trouv 999
▁Capacité 999
▁ennuyé 999
▁préliminaire 999
▁percussion 999
étoiles 999
▁grandiose 999
▁attachée 999
▁tutelle 999
▁sympas 999
▁échéance 999
▁heurt 999
friend 999
▁tt 999
▁Merlin 999
▁1963 999
▁remplacée 999
anes 999
▁décrocher 999
▁agrémenté 999
Orléans 999
▁zen 999
▁éventuel 999
▁Matthieu 999
▁boxe 999
▁élevage 999
▁RÉ 999
▁Résidence 999
brou 999
das 999
▁Ouvert 999
EDI 999
▁Cout 999
astre 999
ally 999
ACE 999
▁inde 999
URE 999
emblée 999
Ju 999
arbitrage 999
▁peluche 999
▁marquage 999
▁médium 999
▁marseille 999
GR 999
igi 999
produit 999
strong 999
gmail 999
nature 999
▁observation 999
▁extr 999
OLE 999
▁aire 999
▁Tunis 999
▁Porn 999
▁blanchi 999
▁consignes 999
▁collines 999
▁ticket 999
diction 999
arros 999
▁piliers 999
▁enseigner 999
▁‘’ 999
kt 999
▁forestier 999
▁vinyle 999
▁impérativement 999
▁reçois 999
▁SEO 999
▁Alpha 999
bby 999
▁Étude 999
▁invitée 999
À 999
optimiser 999
▁Gaza 999
▁perçue 999
uti 999
▁entité 999
▁Solutions 999
▁critiqué 999
▁réclamer 999
▁doses 999
ush 999
linge 999
ambo 999
▁Chamb 999
▁protestant 999
▁Ciel 999
▁joueuse 999
▁FE 999
▁Quelqu 999
TON 999
▁vigilant 999
▁velours 999
▁prairie 999
▁démographique 999
hospitalisation 999
▁vaincre 999
▁retouche 999
▁menthe 999
▁sommaire 999
isait 999
▁ornement 999
▁Rey 999
ARC 999
▁imprimés 999
zac 999
▁urbaines 999
émé 999
▁Nation 999
▁échantillon 999
▁3,5 999
▁om 999
▁chanté 999
▁colorés 999
▁taire 999
▁intenses 999
▁mél 999
DO 999
▁varié 999
partement 999
érée 999
▁signale 999
comment 999
roche 999
▁cheminement 999
ANG 999
▁automatisé 999
onnier 999
▁imposée 999
▁confond 999
hôte 999
▁Mail 999
▁argenté 999
▁présentera 999
▁was 999
▁Martinique 999
▁directives 999
laine 999
▁cot 999
inet 999
▁distribuer 999
pose 999
▁archi 999
cycle 999
▁tronc 999
▁rends 999
éolien 999
▁flammes 999
▁graphisme 999
éba 999
▁commencement 999
▁aisé 999
ties 999
▁examiner 999
▁Challenge 999
▁recyclé 999
▁compliment 999
▁convenir 999
▁interrogations 999
▁comparateur 999
FT 999
▁élégance 999
▁horizontale 999
▁BOU 999
ope 999
▁Classique 999
▁équipage 999
▁contesté 999
▁dépôts 999
première 999
▁Église 999
video 999
autrui 999
▁couvrant 999
mani 999
▁rubriques 999
▁positionner 999
▁sembler 999
▁Press 999
affronter 999
iculture 999
ject 999
▁Act 999
▁appropriée 999
▁sabot 999
▁comédien 999
assin 999
optim 999
▁recherchent 999
▁consultations 999
▁Cercle 999
▁grippe 999
▁posées 999
▁entrepris 999
0000 999
▁Gue 999
▁arrivera 999
▁Pérou 999
▁augmentent 999
▁perpétu 999
▁programmé 999
▁Dub 999
▁salé 999
▁(25 999
cid 999
▁commerçant 999
rave 999
audace 999
▁dangereuses 999
▁dollar 999
▁Coul 999
▁repère 999
▁Colle 999
▁mentir 999
▁kar 999
▁anomalie 999
▁march 999
▁confrontés 999
▁vivait 999
▁magicien 999
▁musicaux 999
▁compétents 999
train 999
▁charité 999
▁sûreté 999
▁exploser 999
animateur 999
▁Continue 999
▁prolonge 999
Etienne 999
mina 999
▁emplacements 999
▁syndic 999
visible 999
oreilles 999
▁COM 999
▁Civil 999
▁décorée 999
▁justesse 999
apporte 999
▁exercé 999
▁messieurs 999
▁nécessitant 999
▁utilitaire 999
▁vulgaire 999
endurance 999
▁arr 999
round 999
▁prévision 999
itter 999
aph 999
▁BI 999
▁1965 999
GP 999
▁arrêts 999
▁débattre 999
▁égalité 999
étudier 999
▁Porto 999
▁franche 999
▁media 999
▁Fox 999
TRA 999
▁ress 999
▁fonce 999
▁nutrition 999
▁ze 999
Italien 999
▁plais 999
▁rejette 999
▁souffert 999
▁incarné 999
▁jambon 999
▁allumé 999
▁téléphonie 999
▁Concept 999
▁Local 999
▁Ouverture 999
▁voeux 999
Ra 999
ificateur 999
zio 999
▁valu 999
▁durablement 999
▁habilité 999
▁couloirs 999
▁filets 999
▁chères 999
▁Moteur 999
▁humides 999
Comté 999
▁DEL 999
▁carence 999
▁Lili 999
▁fantasmes 999
attendez 999
▁suggestion 999
140 999
ffle 999
trois 999
iac 999
▁combustible 999
▁comprenait 999
▁encouragé 999
▁rapproché 999
▁talentueux 999
▁Véronique 999
▁(21 999
forum 999
▁lycéens 999
ÉE 999
▁venons 999
OO 999
▁torse 999
oper 999
▁dégagé 999
édifice 999
▁présentations 999
▁renouvelé 999
▁pénalité 999
▁administrations 999
▁Nou 999
otage 999
▁allie 999
▁apportées 999
▁remerciement 999
communications 999
▁coulisses 999
▁inévitable 999
ulf 999
▁Blo 999
▁passager 999
▁circon 999
▁lunaire 999
entraîner 999
grip 999
▁croyant 999
▁transporté 999
fils 999
ORE 999
Mu 999
▁Prophète 999
▁guitariste 999
▁prématuré 999
▁London 999
▁délivrance 999
▁sauvetage 999
▁laïcité 999
▁Photographie 999
▁Word 999
▁Terr 999
orial 999
▁recherchons 999
▁saints 999
▁emprunter 999
cque 999
▁établit 999
▁journalier 999
▁cafés 999
KI 999
▁chômeurs 999
▁volée 999
▁cylindre 999
▁requin 999
▁lisez 999
▁carottes 999
▁deviner 999
orienter 999
loi 999
▁piscines 999
▁polyvalent 999
OND 999
enregistrer 999
even 999
▁astuce 999
▁basque 999
▁piles 999
▁Mut 999
DG 999
▁prolongée 999
▁apparait 999
▁rousse 999
▁empreinte 999
▁full 999
▁TE 999
igan 999
▁abandon 999
▁respectueuse 999
base 999
▁Troisième 999
▁Finance 999
▁Bisous 999
▁cerner 999
▁invent 999
▁mettrai 999
rim 999
▁»), 999
▁Bin 999
Autre 999
▁regorge 999
▁tee 999
▁!), 999
▁auxiliaire 999
▁majeures 999
▁Vern 999
▁Hop 999
exil 999
BM 999
appellation 999
inquiétude 999
???? 999
▁pointu 999
▁impatient 999
▁revenue 999
lag 999
▁varient 999
oke 999
historien 999
▁Demain 999
▁géniale 999
▁Vendée 999
▁pistolet 999
incarnation 999
échappe 999
▁Alli 999
vry 999
▁escale 999
▁boulangerie 999
▁salariale 999
▁reprenant 999
▁1/ 999
reuil 999
▁VR 999
▁documentaires 999
▁chaton 999
▁inspirant 999
▁25% 999
▁exposées 999
▁briques 999
jusqu 999
fan 999
▁rappellent 999
▁actualité 999
▁consciente 999
▁Mam 999
dex 999
rp 999
▁vigneron 999
▁fondamentales 999
LIER 999
rache 999
▁cartouche 999
▁Parallèlement 999
▁lucratif 999
▁sympathie 999
▁aromatique 999
▁granit 999
▁engendre 999
▁prothèse 999
▁imprimée 999
▁pires 999
▁Arrivé 999
▁diplômé 999
▁chevelure 999
▁diplômes 999
▁Stra 999
▁fréquences 999
▁XL 999
▁alpin 999
mac 999
als 999
▁résistante 999
▁solliciter 999
monnaie 999
ulu 999
▁résonne 999
▁avoue 999
oublions 999
tti 999
▁pacte 999
▁Bak 999
▁recouverte 999
jeux 999
▁pressions 999
uda 999
▁engagées 999
▁Palm 999
▁Comm 999
imm 999
çait 999
▁maille 999
▁liquides 999
▁camarade 999
raft 999
emprise 999
▁tot 999
▁chaussettes 999
▁convoqué 999
▁Boulogne 999
▁coquille 999
▁Forêt 999
▁hôte 999
polis 999
▁souscrire 999
▁continuation 999
▁Games 999
▁africaines 999
analyser 999
▁directs 999
▁arret 999
dg 999
▁vitres 999
▁gode 999
▁dentiste 999
service 999
▁assume 999
TEL 999
libre 999
▁Marg 999
gur 999
plé 999
▁105 999
▁DG 999
▁menant 999
▁Gauche 999
▁Propriété 999
▁décisif 999
▁insupportable 999
abondance 999
▁fréquentes 999
▁craqué 999
bli 999
▁Aquitaine 999
herb 999
athlon 999
▁rapporter 999
▁AT 999
▁méritent 999
med 999
tell 999
▁distingué 999
▁reportages 999
rip 999
▁purée 999
▁cultiver 999
5€ 999
▁souri 999
chef 999
EB 999
▁Laurence 999
▁Jeff 999
▁vibrations 999
▁bre 999
abonner 999
▁départementales 999
ticul 999
▁berger 999
tv 999
interrogation 999
▁pittoresque 999
▁vengeance 999
▁bambou 999
▁croyais 999
▁rayures 999
▁lobby 999
▁improbable 999
print 999
▁Nathan 999
▁enregistrements 999
▁prisonnier 999
▁exceptionnels 999
▁potentielle 999
archipel 999
▁Huile 999
▁vagin 999
oku 999
opposer 999
organise 999
LAN 999
▁locataires 999
▁intégralement 999
▁Menu 999
▁conçues 999
▁Option 999
▁drogues 999
Photo 999
avança 999
▁algérienne 999
▁partit 999
▁intégr 999
ORD 999
▁dépendent 999
▁relier 999
▁mous 999
▁Nova 999
flé 999
▁press 999
▁VIH 999
▁audition 999
▁Work 999
▁vitale 999
▁rémunéré 999
▁circonstance 999
▁christianisme 999
▁fracture 999
▁Animation 999
▁consistant 999
▁absurde 999
▁french 999
▁Euros 999
▁tuyaux 999
▁demandais 999
▁attestation 999
▁Défi 999
▁horizons 999
icat 999
cran 999
uci 999
▁surnommé 999
▁critiquer 999
adversaire 999
investisseur 999
rif 999
▁conditionné 999
▁Wiki 999
▁financièrement 999
▁eh 999
▁brodé 999
▁vilain 999
▁améliorée 999
▁perdant 999
▁Patrice 999
▁Marco 999
▁créa 999
couvrez 999
▁synthé 999
▁matérielle 999
°2 999
USS 999
lope 999
▁considérées 999
▁bénéficiaire 999
▁déployer 999
▁prolongation 999
▁Interieur 999
anciens 999
▁augmentée 999
▁favorite 999
▁recourir 999
▁battus 999
▁soulagement 999
▁Vivre 999
obscurité 999
volt 999
▁maudit 999
lik 999
Irlande 999
Pyrénées 999
▁rajoute 999
▁appro 999
implication 999
▁Wil 999
CES 999
▁élaborer 999
lard 999
▁QUE 999
▁teinté 999
▁tracteur 999
ALI 999
▁pli 999
▁conviennent 999
▁menuiserie 999
▁spiritualité 999
▁Fais 999
expériences 999
▁EX 999
▁detail 999
▁habitués 999
▁batte 999
DES 999
▁wo 999
iris 999
▁changeant 999
host 999
anga 999
?" 999
méri 999
▁Sym 999
oscope 999
ANC 999
▁Raphaël 999
▁aviez 999
▁gif 999
▁zoo 999
▁model 999
étudiants 999
▁mol 999
▁choqué 999
▁Étant 999
▁programmée 999
▁intact 999
▁musclé 999
bab 999
000€ 999
▁XXX 999
▁évaluations 999
issime 999
▁reg 999
▁fragiles 999
porter 999
Ambassade 999
▁ergonomique 999
▁disputé 999
user 999
▁Division 999
▁Logement 999
rug 999
▁accroche 999
▁commodités 999
▁tenta 999
▁desquels 999
▁fermement 999
frère 999
donne 999
fuge 999
élio 999
héri 999
▁reviendrai 999
▁billes 999
▁performants 999
dji 999
▁duel 999
▁retraites 999
▁refusent 999
▁Chili 999
▁Fabien 999
arisme 999
▁nullement 999
oser 999
town 999
▁icônes 999
pen 999
LP 999
▁Anthony 999
▁carrosserie 999
▁téléspectateurs 999
▁gêné 999
▁précieuses 999
oré 999
▁culinaire 999
▁citoyenneté 999
lisme 999
▁State 999
▁pureté 999
▁pol 999
▁dépassement 999
▁Tél 999
▁4000 999
▁IR 999
abandonner 999
▁régi 999
lian 999
▁Pie 999
inflige 999
▁gomme 999
▁éloignée 999
aile 999
éché 999
accorde 999
▁enregistrée 999
▁like 999
film 999
▁Rh 999
▁Eve 999
▁1900 999
LOG 999
▁Confi 999
▁American 999
▁pénètre 999
▁scooter 999
▁Historique 999
▁Cabinet 999
▁cardinal 999
▁catalan 999
▁buzz 999
WA 999
▁sauront 999
▁ouvrier 999
▁exécut 999
ipp 999
▁bonhomme 999
accepta 999
▁1966 999
chaud 999
▁tremblement 999
velopp 999
bian 999
▁Utilisation 999
▁vibrant 999
▁vaccination 999
ancy 999
▁réalités 999
ref 999
▁aille 999
uan 999
inde 999
▁avertissement 999
nalité 999
ân 999
▁respectifs 999
▁bonbons 999
▁entrent 999
▁far 999
lance 999
▁pret 999
vrier 999
TRI 999
▁voisines 999
▁Méri 999
▁bin 999
▁Introduction 999
▁marathon 999
▁municipaux 999
▁diagnostique 999
▁mariages 999
▁particularités 999
▁Bran 999
foli 999
▁chape 999
▁muse 999
nade 999
▁ambiante 999
▁capter 999
▁dam 999
▁correspondante 999
▁mâles 999
▁verrou 999
parents 999
▁rabais 999
▁interruption 999
expansion 999
▁drama 999
adopter 999
▁représentés 999
▁apparue 999
▁encadré 999
▁crucial 999
▁croisement 999
▁mdr 999
▁divorcé 999
▁traducteur 999
ignorance 999
▁fresque 999
hypnose 999
évier 999
Environnement 999
▁15% 999
▁modélisation 999
▁trouvons 999
IES 999
urie 999
▁Brian 999
franc 999
▁conventionnel 999
▁Ash 999
sident 999
▁séparément 999
▁brille 999
▁Gé 999
pris 999
plic 999
▁distant 999
▁Sab 999
▁toiles 999
▁bits 999
rrr 999
▁inattendu 999
IME 999
▁achevé 999
igh 999
▁Emb 999
▁draps 999
▁poutre 999
▁Aqua 999
▁Coll 999
archives 999
cession 999
pur 999
oom 999
▁préparée 999
▁Kin 999
immatriculation 999
▁Limoges 999
▁Achetez 999
▁Boîte 999
▁salue 999
roit 999
▁leadership 999
▁économiser 999
▁adhésion 999
▁jadis 999
▁mélodie 999
▁Joël 999
mbour 999
▁bad 999
▁Potter 999
▁Suc 999
▁ballons 999
▁Uni 999
▁expérimentale 999
▁convoi 999
▁enchanté 999
20) 999
wo 999
ignac 999
▁manifestement 999
▁risquer 999
RF 999
▁variantes 999
escence 999
▁interdiction 999
NT 999
▁culpabilité 999
▁délinquance 999
▁sch 999
Roussillon 999
▁civique 999
▁disposons 999
▁Préparation 999
▁Fur 999
▁prêté 999
▁défenseurs 999
▁paraissent 999
▁nickel 999
sure 999
ncé 999
iode 999
▁expliquant 999
AJ 999
hang 999
cure 999
▁textures 999
mari 999
110 999
gno 999
▁North 999
▁désaccord 999
▁qualit 999
▁literie 999
▁112 999
▁Gour 999
Information 999
▁soulève 999
marine 999
▁inquiète 999
▁accueillent 999
▁négatives 999
dix 999
▁Vér 999
▁dÃ 999
érien 999
▁illustration 999
▁veines 999
▁soute 999
▁ste 999
▁cœurs 999
▁transformations 999
▁multiple 999
▁Wei 999
▁Toyota 999
▁biblique 999
▁mythologie 999
▁zombie 999
▁sanctuaire 999
▁étui 999
▁renouveau 999
▁Nobel 999
▁durci 999
▁anglo 999
▁montants 999
▁Papier 999
▁bond 999
▁recommandation 999
▁tomate 999
▁occasionnelle 999
noy 999
ordi 999
▁indemnité 999
nium 999
▁Beauté 999
▁coucou 999
▁salée 999
▁branle 999
respect 999
▁connecte 999
itinéraire 999
Autriche 999
▁extraordinaires 999
Calais 999
impulsion 999
▁guidé 999
mai 999
▁Arrêté 999
enlever 999
BB 999
lines 999
donner 999
bec 999
moteur 999
store 999
xo 999
▁Territoire 999
baud 999
MES 999
▁Léo 999
▁progressif 999
▁créneau 999
▁Extra 999
rik 999
▁rampe 999
▁Niger 999
▁exotique 999
▁alias 999
▁lacs 999
drome 999
▁tendue 999
▁évêques 999
▁déesse 999
▁habillé 999
phonie 999
▁Matière 999
alys 999
▁peines 999
▁close 999
Anim 999
▁attribuer 999
▁opposée 999
▁estimations 999
▁libertines 999
▁contours 999
▁haie 999
▁Tarn 999
▁*** 999
loup 999
▁châteaux 999
▁fassent 999
appe 999
▁Journées 999
▁reflets 999
▁parure 999
▁jure 999
organe 999
▁visitez 999
wikipedia 999
▁bénédiction 999
▁compatriote 999
▁hydratant 999
▁chauffant 999
▁décisive 999
▁Numérique 999
▁caramel 999
▁symbolise 999
▁MB 999
▁nuire 999
▁South 999
FIN 999
▁emballage 999
▁Kou 999
▁accélérer 999
▁pleines 999
▁Hand 999
▁Auvergne 999
▁patrie 999
▁1,2 999
▁salué 999
▁70% 999
▁Fly 999
archi 999
▁Kas 999
▁Cup 999
OV 999
▁passerelle 999
▁rencontrez 999
▁ordinaires 999
▁morales 999
Ph 999
▁grimpe 999
▁perdent 999
▁Chou 999
▁asso 999
▁Pet 999
▁zoom 999
▁dort 999
incertitude 999
accusation 999
▁pronostic 999
éternité 999
▁Magasin 999
quence 999
▁barbare 999
▁jumeaux 999
▁autochtones 999
▁enchères 999
▁Crois 999
▁pluies 999
▁raccordement 999
0,00 999
▁1958 999
▁gravé 999
▁attrayant 999
▁cliché 999
▁annulé 999
▁90% 999
obi 999
TY 999
▁soeurs 999
▁Domin 999
▁conteste 999
nomique 999
attentat 999
▁Tech 999
▁disco 999
▁Bett 999
▁Tele 999
▁1.5 999
▁cloud 999
étoile 999
▁Kor 999
▁fenetre 999
▁Wallonie 999
▁rappeur 999
▁expédié 999
▁ajusté 999
VM 999
ving 999
HS 999
▁brave 999
▁virement 999
▁autonomes 999
▁indirectement 999
▁sim 999
▁percer 999
▁Pris 999
shirts 999
▁amical 999
▁lie 999
▁échantillons 999
▁planifier 999
▁Intel 999
▁tumeur 999
▁boites 999
▁Vélo 999
espere 999
▁proportions 999
▁créance 999
▁souscrit 999
▁projections 999
▁relié 999
jean 999
tting 999
▁éclairer 999
▁Mega 999
[3] 999
▁Profil 999
▁Housse 999
▁Back 999
octroi 999
▁1918 999
agriculteur 999
ombr 999
190 999
choir 999
▁Premium 999
▁photovoltaïque 999
▁téléviseur 999
/11/2018 999
▁premium 999
▁déroulent 999
▁jeûne 999
▁équivalente 999
▁Paix 999
étrange 999
▁motos 999
IZ 999
just 999
▁pairs 999
▁Départemental 999
pag 999
▁vestiges 999
▁Ras 999
▁Kra 999
▁hypothèses 999
▁Hautes 999
▁attendez 999
eter 999
administrateur 999
▁soignée 999
▁Canon 999
gaz 999
ffin 999
avenue 999
▁violents 999
▁forgé 999
BRE 999
épha 999
10) 999
tration 999
▁nobles 999
inflammation 999
▁sécheresse 999
▁inversé 999
▁Européen 999
▁huitième 999
▁bordel 999
▁beurette 999
▁inconvénients 999
▁startup 999
▁soignant 999
▁plier 999
▁SARL 999
▁Lim 999
▁fast 999
▁empire 999
▁acco 999
▁exprimée 999
AME 999
▁personnalisable 999
ariat 999
▁parisiens 999
▁toxiques 999
▁Clair 999
▁actives 999
III 999
sseurs 999
assez 999
▁ptit 999
▁bor 999
oop 999
▁formant 999
▁garantis 999
▁obligés 999
assistant 999
▁audit 999
mid 999
▁ortho 999
▁soul 999
▁Veille 999
argue 999
évidence 999
intervalle 999
▁confondu 999
▁Conservatoire 999
▁gentiment 999
▁Avenue 999
▁centenaire 999
▁hardcore 999
▁vidange 999
▁clown 999
▁Standard 999
▁Silver 999
enveloppe 999
nif 999
▁Renaud 999
Per 999
▁Road 999
▁espoirs 999
▁Relations 999
▁booster 999
▁nain 999
▁rocher 999
jon 999
▁finement 999
habille 999
DER 999
▁Abd 999
▁séparée 999
▁modele 999
▁Pac 999
oya 999
MAR 999
▁élaborée 999
▁MC 999
▁cône 999
▁Entreprises 999
▁désolée 999
▁Joy 999
▁moindres 999
1000 999
▁horloge 999
▁Ingrédients 999
▁douzaine 999
▁déguisement 999
▁éligible 999
▁interpellé 999
▁Chronique 999
▁embout 999
▁découle 999
ouze 999
▁politiciens 999
▁chip 999
▁cassation 999
ifique 999
▁esthétiques 999
▁concessionnaire 999
importation 999
▁emballé 999
▁récolter 999
approprier 999
▁comédiens 999
▁Major 999
rge 999
▁Fay 999
▁raffinée 999
▁figurines 999
▁établies 999
▁avr 999
▁orage 999
▁DD 999
ennuie 999
▁Clé 999
Article 999
bras 999
▁collecter 999
hâ 999
▁pes 999
trine 999
expulsion 999
indication 999
ouvert 999
hydr 999
▁cousine 999
▁maitrise 999
__ 999
▁Carrefour 999
▁impliquant 999
▁permalien 999
▁Garantie 999
▁charpente 999
▁bûche 999
▁vanne 999
▁paraissait 999
▁consacrés 999
ameublement 999
▁subissent 999
▁oignons 999
▁soude 999
clus 999
▁Géo 999
▁Chau 999
jeu 999
près 999
▁Rosa 999
▁durs 999
▁Williams 999
▁conjointement 999
▁balai 999
▁[2] 999
▁espion 999
▁historiens 999
▁XI 999
▁vulnérables 999
affrontement 999
▁Activités 999
ajoutent 999
▁Rap 999
▁souf 999
▁soigne 999
veux 999
▁2005. 999
Avec 999
▁Maz 999
▁détourner 999
oreiller 999
▁exotiques 999
▁veau 999
▁freins 999
eder 999
lop 999
Ç 999
Zélande 999
▁générateur 999
▁paradoxe 999
▁répertorié 999
▁affichant 999
▁Apprendre 999
▁géométrique 999
▁jumelle 999
▁Occident 999
▁natation 999
▁séminaires 999
▁allergique 999
▁oral 999
▁2006. 999
▁ten 999
▁poss 999
▁curé 999
▁psychologiques 999
▁sabre 999
▁serviettes 999
▁Champs 999
elec 999
▁SER 999
▁organisent 999
▁inciter 999
▁Por 999
ssen 999
▁pathologies 999
▁scie 999
▁Ath 999
lm 999
lys 999
▁Course 999
▁préparés 999
▁parcelles 999
▁HTML 999
▁dédicace 999
▁facturé 999
▁éolienne 999
▁bémol 999
▁potager 999
▁Autour 999
▁0,2 999
route 999
▁réactivité 999
excellent 999
▁Soci 999
dri 999
▁obsession 999
▁CCI 999
▁occupés 999
PU 999
▁Spécialiste 999
▁fragment 999
geant 999
chons 999
▁pardonner 999
▁Night 999
▁affichage 999
▁usées 999
inconnu 999
York 999
▁administrateur 999
vient 999
égout 999
ancre 999
▁(22 999
alistes 999
▁Fini 999
▁Had 999
▁promu 999
ieuse 999
▁collabore 999
▁domin 999
▁commenté 999
amende 999
▁entrainement 999
▁cassée 999
environnementaux 999
▁conquérir 999
▁perturbé 999
▁foncier 999
▁Ikea 999
▁sécuriser 999
▁successives 999
▁envoyez 999
▁lâché 999
▁Pied 999
▁traitée 999
▁colonel 999
▁Poul 999
▁Bottes 999
dorf 999
▁exclusivité 999
AUT 999
OK 999
achi 999
URSS 999
▁décidée 999
▁Dead 999
▁priver 999
▁ombres 999
èmes 999
effectif 999
ugg 999
▁Juge 999
explorer 999
▁répandu 999
▁Faso 999
▁Doté 999
Irak 999
cru 999
▁grandit 999
▁vitrée 999
▁NON 999
▁lycées 999
▁fondements 999
gat 999
[...]
